{"[PAD]":0,"[start]":1,"[end]":2,"[UNK]":3,"[MASK]":4,"[PROMPT_START]":5,"[PROMPT_END]":6,"[AI]":7,"!":8,"\"":9,"#":10,"$":11,"%":12,"&":13,"'":14,"(":15,")":16,"*":17,"+":18,",":19,"-":20,".":21,"/":22,"0":23,"1":24,"2":25,"3":26,"4":27,"5":28,"6":29,"7":30,"8":31,"9":32,":":33,";":34,"<":35,"=":36,">":37,"?":38,"@":39,"A":40,"B":41,"C":42,"D":43,"E":44,"F":45,"G":46,"H":47,"I":48,"J":49,"K":50,"L":51,"M":52,"N":53,"O":54,"P":55,"Q":56,"R":57,"S":58,"T":59,"U":60,"V":61,"W":62,"X":63,"Y":64,"Z":65,"[":66,"\\":67,"]":68,"^":69,"_":70,"`":71,"a":72,"b":73,"c":74,"d":75,"e":76,"f":77,"g":78,"h":79,"i":80,"j":81,"k":82,"l":83,"m":84,"n":85,"o":86,"p":87,"q":88,"r":89,"s":90,"t":91,"u":92,"v":93,"w":94,"x":95,"y":96,"z":97,"{":98,"|":99,"}":100,"~":101,"¡":102,"¢":103,"£":104,"¤":105,"¥":106,"¦":107,"§":108,"¨":109,"©":110,"ª":111,"«":112,"¬":113,"®":114,"¯":115,"°":116,"±":117,"²":118,"³":119,"´":120,"µ":121,"¶":122,"·":123,"¸":124,"¹":125,"º":126,"»":127,"¼":128,"½":129,"¾":130,"¿":131,"À":132,"Á":133,"Â":134,"Ã":135,"Ä":136,"Å":137,"Æ":138,"Ç":139,"È":140,"É":141,"Ê":142,"Ë":143,"Ì":144,"Í":145,"Î":146,"Ï":147,"Ð":148,"Ñ":149,"Ò":150,"Ó":151,"Ô":152,"Õ":153,"Ö":154,"×":155,"Ø":156,"Ù":157,"Ú":158,"Û":159,"Ü":160,"Ý":161,"Þ":162,"ß":163,"à":164,"á":165,"â":166,"ã":167,"ä":168,"å":169,"æ":170,"ç":171,"è":172,"é":173,"ê":174,"ë":175,"ì":176,"í":177,"î":178,"ï":179,"ð":180,"ñ":181,"ò":182,"ó":183,"ô":184,"õ":185,"ö":186,"÷":187,"ø":188,"ù":189,"ú":190,"û":191,"ü":192,"ý":193,"þ":194,"ÿ":195,"Ā":196,"ā":197,"Ă":198,"ă":199,"Ą":200,"ą":201,"Ć":202,"ć":203,"Ĉ":204,"ĉ":205,"Ċ":206,"ċ":207,"Č":208,"č":209,"Ď":210,"ď":211,"Đ":212,"đ":213,"Ē":214,"ē":215,"Ĕ":216,"ĕ":217,"Ė":218,"ė":219,"Ę":220,"ę":221,"Ě":222,"ě":223,"Ĝ":224,"ĝ":225,"Ğ":226,"ğ":227,"Ġ":228,"ġ":229,"Ģ":230,"ģ":231,"Ĥ":232,"ĥ":233,"Ħ":234,"ħ":235,"Ĩ":236,"ĩ":237,"Ī":238,"ī":239,"Ĭ":240,"ĭ":241,"Į":242,"į":243,"İ":244,"ı":245,"Ĳ":246,"ĳ":247,"Ĵ":248,"ĵ":249,"Ķ":250,"ķ":251,"ĸ":252,"Ĺ":253,"ĺ":254,"Ļ":255,"ļ":256,"Ľ":257,"ľ":258,"Ŀ":259,"ŀ":260,"Ł":261,"ł":262,"Ń":263,"Ġt":264,"Ġa":265,"in":266,"he":267,"re":268,"ou":269,"Ġw":270,"Ġs":271,"Ġthe":272,"Ġo":273,"nd":274,"at":275,"ing":276,"Ġd":277,"ve":278,"Ġb":279,"it":280,"Ġy":281,"Ġyou":282,"on":283,"Ġc":284,"Ġf":285,"Ġm":286,"es":287,"is":288,"Ġto":289,"Ġand":290,"Ġl":291,"Ġp":292,"er":293,"en":294,"or":295,"Ġof":296,"Ġth":297,"an":298,"Ġh":299,"ll":300,"rea":301,"Ġin":302,"Ġn":303,"ar":304,"om":305,"Ġe":306,"Ġbe":307,"ed":308,"ream":309,"Ġg":310,"ion":311,"Ġis":312,"st":313,"ot":314,"ĠI":315,"Ġdream":316,"le":317,"Ġyour":318,"se":319,"Ġha":320,"ow":321,"al":322,"Ġli":323,"Ġthat":324,"ce":325,"ay":326,"ver":327,"Ġu":328,"Ġit":329,"ct":330,"im":331,"et":332,"Ġon":333,"Ġwh":334,"ld":335,"gh":336,"ent":337,"ut":338,"our":339,"Ġhe":340,"Ġwe":341,"ess":342,"Ġfor":343,"ith":344,"ly":345,"as":346,"ke":347,"Ġst":348,"Ġnot":349,"ic":350,"ill":351,"Ġre":352,"fe":353,"âĢ":354,"Ġwith":355,"Ġare":356,"id":357,"ir":358,"pp":359,"Ġdreams":360,"ght":361,"The":362,"ur":363,"ation":364,"ch":365,"ra":366,"ive":367,"Ġcan":368,"ul":369,"Ġhave":370,"out":371,"ro":372,"Ġour":373,"Ġas":374,"her":375,"if":376,"ind":377,"Ġdo":378,"Ġan":379,"ie":380,"Ġse":381,"Ġlife":382,"il":383,"Ġme":384,"Ġwor":385,"th":386,"ity":387,"Ġne":388,"ome":389,"Ġmy":390,"Ġwill":391,"op":392,"ate":393,"âĢĻ":394,"od":395,"all":396,"Ġfr":397,"Ġor":398,"Ġall":399,"ant":400,"art":401,"hen":402,"Ġsu":403,"Ġrea":404,"ake":405,"Ġex":406,"Ġcon":407,"ore":408,"Ġgo":409,"ĠĊ":410,"ag":411,"Ġlo":412,"ight":413,"ers":414,"Ġde":415,"Ġj":416,"est":417,"Ġk":418,"ust":419,"ad":420,"Ġch":421,"Ġwhat":422,"Ġsh":423,"ould":424,"lf":425,"ĠA":426,"Ġtr":427,"ep":428,"..":429,"Ġbut":430,"ies":431,"iv":432,"res":433,"very":434,"Ġab":435,"Ġwas":436,"ist":437,"ain":438,"os":439,"Ġint":440,"ĠThe":441,"Ġal":442,"ac":443,"Ġfe":444,"ĠW":445,"nt":446,"pe":447,"reat":448,"Ġcom":449,"You":450,"ort":451,"Ġr":452,"ĠB":453,"ings":454,"ĠS":455,"Ġus":456,"Ġv":457,"Ġthey":458,"Ġwho":459,"am":460,"Ġso":461,"Ġat":462,"Ġtim":463,"are":464,"ble":465,"ose":466,"'s":467,"ment":468,"ig":469,"Ġfrom":470,"Ġim":471,"ter":472,"Ġen":473,"us":474,"ction":475,"ue":476,"one":477,"Ġup":478,"rou":479,"and":480,"ong":481,"ther":482,"Ġhapp":483,"ure":484,"ip":485,"Ġbec":486,"ak":487,"Ġle":488,"ĠT":489,"Ġpe":490,"Ġby":491,"Ġone":492,"now":493,"ne":494,"Ġtime":495,"ness":496,"Ġthem":497,"ves":498,"qu":499,"ĠIt":500,"hing":501,"Ġpro":502,"el":503,"au":504,"Ġtheir":505,"Ġreal":506,"way":507,"Ġun":508,"Ġwhen":509,"ast":510,"self":511,"Ġsee":512,"ĠH":513,"Ġem":514,"ard":515,"ful":516,"Ġevery":517,"Ġother":518,"ge":519,"Ġworld":520,"Ġabout":521,"ide":522,"Ġlike":523,"ence":524,"ople":525,"ace":526,"Ġknow":527,"um":528,"Ġout":529,"Ġmore":530,"un":531,"cc":532,"ol":533,"Ġno":534,"Ġher":535,"Ġif":536,"ous":537,"ĠD":538,"ations":539,"Ġgr":540,"Ġpl":541,"Ġpeople":542,"Ġinto":543,"ass":544,"Ġlove":545,"iness":546,"Ġthis":547,"ost":548,"nds":549,"Ġwant":550,"ieve":551,"nder":552,"ĠG":553,"here":554,"Ġonly":555,"ok":556,"iz":557,"ci":558,"ving":559,"ire":560,"Ġnever":561,"Ġhad":562,"Ġthere":563,"Ġam":564,"omet":565,"Ġmake":566,"Ġman":567,"Ġwould":568,"hip":569,"ine":570,"Ġthan":571,"ance":572,"Ġexp":573,"ink":574,"ĠL":575,"Ġday":576,"age":577,"ĠE":578,"pt":579,"Ġany":580,"Ġthings":581,"em":582,"Ġhis":583,"Ġsome":584,"ause":585,"Ġpers":586,"Ġgreat":587,"oy":588,"Ġmind":589,"Ġpos":590,"Ġimp":591,"Ġway":592,"ud":593,"ĠM":594,"Ġjust":595,"ĠC":596,"ions":597,"Ġsp":598,"hat":599,"ĠYou":600,"Ġbel":601,"Ġheart":602,"Ġpr":603,"ven":604,"Ġfa":605,"ack":606,"ice":607,"ach":608,"Ġyourself":609,"als":610,"Ġbl":611,"ĠP":612,"oc":613,"Ġres":614,"ild":615,"Ġhow":616,"ap":617,"Ġthou":618,"Ġlive":619,"ound":620,"ame":621,"Ġpur":622,"Ġshe":623,"Ġrel":624,"rough":625,"ich":626,"Ġwork":627,"pect":628,"Ġsomet":629,"wn":630,"...":631,"ways":632,"Ġfeel":633,"red":634,"ities":635,"Ġbr":636,"Ġgive":637,"Ġthink":638,"thing":639,"ult":640,"Ġfind":641,"Ġget":642,"Ġcl":643,"Ġhas":644,"Ġwere":645,"Ġhappiness":646,"ite":647,"Ġbecause":648,"Ġstr":649,"ĠâĢ":650,"ccess":651,"Ġbet":652,"able":653,"si":654,"Ġwhere":655,"Ġsa":656,"ren":657,"ish":658,"ars":659,"Ġte":660,"eri":661,"ĠF":662,"ower":663,"ces":664,"Ġcomp":665,"Ġthrough":666,"end":667,"Ġperson":668,"Ġalways":669,"ress":670,"Ġqu":671,"Ġdes":672,"Ġover":673,"ath":674,"Ġact":675,"pport":676,"Ġcome":677,"Ġfrie":678,"Ġown":679,"Ġneed":680,"Ġcould":681,"ĠR":682,"hips":683,"Ġnight":684,"ĠN":685,"Ġthose":686,"Ġsomething":687,"Ġothers":688,"oment":689,"Ġwhich":690,"ans":691,"Ġcont":692,"ning":693,"Ġsm":694,"Ġins":695,"Ġfl":696,"Ġunder":697,"Ġke":698,"ĠGod":699,"Ġsuccess":700,"Ġmust":701,"ally":702,"ctions":703,"ile":704,"we":705,"Ġtrue":706,"be":707,"Ġmoment":708,"Ġself":709,"ove":710,"ĠAnd":711,"pl":712,"Ġag":713,"Ġthen":714,"Ġpass":715,"leep":716,"Ġdis":717,"If":718,"itt":719,"Ġach":720,"Ġgood":721,"ark":722,"Ġthought":723,"ĠO":724,"Ġgrow":725,"hed":726,"Ġsen":727,"round":728,"Ġrelations":729,"Ġmay":730,"ry":731,"old":732,"og":733,"start":734,"Ġlong":735,"Ġcre":736,"Ġbeing":737,"not":738,"ise":739,"own":740,"ract":741,"lly":742,"Ġeven":743,"Ġdif":744,"vel":745,"Ġlet":746,"Ġtake":747,"ating":748,"Ġro":749,"Ġper":750,"ward":751,"Ġ\"":752,"Ġchan":753,"ign":754,"Ġsay":755,"ck":756,"ff":757,"ond":758,"Ġfriends":759,"ber":760,"aking":761,"It":762,"aut":763,"Ġits":764,"Ġapp":765,"ude":766,"Ġhop":767,"sel":768,"ulf":769,"Ġjoy":770,"Ġrem":771,"Ġreality":772,"ĠIn":773,"ri":774,"Ġpower":775,"Ġlook":776,"Ġlives":777,"Ġwell":778,"Ġexperi":779,"Ġfulf":780,"Ġbeen":781,"Ġsou":782,"Ġad":783,"Ġwr":784,"Ġmost":785,"Ġcreate":786,"ize":787,"akes":788,"Ġey":789,"alk":790,"Ġcomm":791,"ting":792,"Ġ-":793,"Ġsleep":794,"less":795,"Ġend":796,"Ġbeaut":797,"Ġeach":798,"Ġbelieve":799,"stand":800,"Ġhim":801,"'t":802,"ab":803,"du":804,"Ġagain":805,"Ġcannot":806,"ĠHe":807,"urn":808,"selves":809,"itude":810,"Ġsense":811,"ility":812,"Ġachieve":813,"bra":814,"âĢĿ":815,"Ġfulfill":816,"Ġbecome":817,"itive":818,"ĠWe":819,"Your":820,"Ġbu":821,"Ġnow":822,"ds":823,"ination":824,"Ġdoes":825,"Ġimag":826,"ret":827,"other":828,"ĠBy":829,"fore":830,"Ġop":831,"Ġar":832,"Ġwithout":833,"We":834,"oll":835,"ood":836,"Ġback":837,"Ġatt":838,"Ġrelationships":839,"Ġtoo":840,"Ġsoul":841,"get":842,"Ġhel":843,"Ġgoals":844,"Ġdid":845,"Ġnew":846,"imp":847,"Ġright":848,"Ġkeep":849,"Ġkind":850,"les":851,"Ġaf":852,"arn":853,"Ġever":854,"Ġconne":855,"Ġmean":856,"Ġdeep":857,"Ġhelp":858,"ual":859,"Ġbig":860,"When":861,"ial":862,"Ġfut":863,"Ġmat":864,"ory":865,"ĠThey":866,"ough":867,"ated":868,"app":869,"ĠBut":870,"ĠTh":871,"Ġhum":872,"uch":873,"Ġfu":874,"Ġpo":875,"ks":876,"reams":877,"Ġdiffe":878,"Ġspe":879,"Ġcreat":880,"Ġdreaming":881,"ily":882,"Ġthing":883,"In":884,"Ġeyes":885,"Ġdown":886,"pose":887,"Ġbo":888,"Ġfuture":889,"ree":890,"ourage":891,"Ġhappen":892,".[":893,"ife":894,"Ġvis":895,"Ġbest":896,"Ġsc":897,"sible":898,"Ġdon":899,"ount":900,"ody":901,"ms":902,"Ġaway":903,"Ġbetter":904,"Ġunderstand":905,"Ġsk":906,"ave":907,"Ġpart":908,"Ġemot":909,"Ġpurs":910,"ever":911,"Ġheal":912,"Ġstill":913,"Ġshould":914,"Ã¢":915,"Ġpres":916,"ittle":917,"][":918,"day":919,"ows":920,"Ġoff":921,"Ġpositive":922,"Ġopen":923,"Ġnothing":924,"fect":925,"Ġmuch":926,"Ġsaid":927,"Ġeverything":928,"ocus":929,"Ġra":930,"ÂĢ":931,"Ġset":932,"ary":933,"ÂĢÂ":934,"Ġpract":935,"ĠWhen":936,"so":937,"Ġliving":938,"Ġaw":939,"Ġhope":940,"Ġlight":941,"irst":942,"Ġpurpose":943,"Ġsomeone":944,"ner":945,"ten":946,"cept":947,"led":948,"hes":949,"Ġind":950,"Ġcons":951,"Ġmot":952,"Ġcr":953,"ional":954,"ĠâĢľ":955,"Ġtra":956,"Ġsupport":957,"atitude":958,"Ġcho":959,"Ġwo":960,"iss":961,"Ġlittle":962,"Ġbeg":963,"Ġbefore":964,"ĠBe":965,"pir":966,"Ġel":967,"imes":968,"Ġwithin":969,"Ġchange":970,"orm":971,"act":972,"tain":973,"Ġsimp":974,"Ġourselves":975,"isten":976,"ical":977,"Ġthese":978,"ade":979,"Be":980,"ang":981,"Ġgl":982,"allen":983,"ons":984,"Ġac":985,"Ġimport":986,"Ġhard":987,"ĠIf":988,"Ġval":989,"reng":990,"cing":991,"Ġgoing":992,"And":993,"ential":994,"Ġstart":995,"Ġtry":996,"Ġfirst":997,"Ġstreng":998,"ĠĠ":999,"Ġye":1000,"ors":1001,"urt":1002,"ember":1003,"int":1004,"Ġplace":1005,"Ġsmall":1006,"Ġfocus":1007,"Ġaround":1008,"Ġhappy":1009,"ultiv":1010,"Ġfail":1011,"Ġpassion":1012,"iver":1013,"Ġdec":1014,"Ġjour":1015,"its":1016,"Ġlast":1017,"ick":1018,"Ġexist":1019,"ween":1020,"uring":1021,"ift":1022,"Ġanother":1023,"ared":1024,"Ġhuman":1025,"hy":1026,"rent":1027,"ivid":1028,"vent":1029,"Ġunt":1030,"ious":1031,"Ġsame":1032,"ase":1033,"ures":1034,"Ġtw":1035,"Ġdr":1036,"Ġchallen":1037,"There":1038,"ft":1039,"ict":1040,"ĠJ":1041,"Ġenough":1042,"ories":1043,"Ġfear":1044,"Ġbring":1045,"Ġbuild":1046,"Ġmotiv":1047,"Ġacc":1048,"sib":1049,"Ġhealth":1050,"ges":1051,"Ġgra":1052,"ney":1053,"Ġvery":1054,"Ġpersonal":1055,".\"":1056,"Ġsur":1057,"Ġalso":1058,"Ġbetween":1059,"ather":1060,"Ġthoughts":1061,"Ġstep":1062,"Ġstrong":1063,"Ġmo":1064,"read":1065,"ering":1066,"Ġdisc":1067,"Ġwat":1068,"Ġdest":1069,"ires":1070,"Ġdark":1071,"Ġreally":1072,"Ġtell":1073,"Ġjourney":1074,"reci":1075,"Ġgrowth":1076,"Ġpresent":1077,"What":1078,"Ġrec":1079,"Ġlearn":1080,"Ġcall":1081,"Ġmem":1082,"Ġlead":1083,"Ġdesire":1084,"te":1085,"ivity":1086,"Ġpeace":1087,"iting":1088,"Ġmight":1089,"being":1090,"ences":1091,"Ġmeaning":1092,"Ġob":1093,"ollow":1094,"Ġbegin":1095,"ied":1096,"Ġinte":1097,"Ġmany":1098,"Ġimportant":1099,"row":1100,"Ġturn":1101,"Th":1102,"Ġwis":1103,"Ġfound":1104,"Ġhold":1105,"Ġinc":1106,"Ġwords":1107,"Ġembra":1108,"pportun":1109,"To":1110,"Ġanything":1111,"Ġwa":1112,"Ġcare":1113,"oth":1114,"Ġafter":1115,"Ġelse":1116,"king":1117,"Ġpast":1118,"Ġmade":1119,"Ġear":1120,"Ġconf":1121,"Ġlisten":1122,"Ġinv":1123,"Ġreach":1124,"uth":1125,"Ġent":1126,"Ġsuch":1127,"Ġchild":1128,"Ġopportun":1129,"iful":1130,"Ġwalk":1131,"Ġwhy":1132,"Ġwhile":1133,"Ġsun":1134,"assion":1135,"Ġide":1136,"arm":1137,"Don":1138,"igh":1139,"ob":1140,"Ġoften":1141,"Ġgen":1142,"Ġgratitude":1143,"ÂĢÂĻ":1144,"ail":1145,"Ġeff":1146,"ific":1147,"cial":1148,"Ġuntil":1149,"Ġcultiv":1150,"cess":1151,"iving":1152,"Ġcommun":1153,"Ġbeautiful":1154,"Ġsl":1155,"ition":1156,"Ġtoget":1157,"Ġtogether":1158,"ss":1159,"Ġfall":1160,"Ġcomes":1161,"Ġput":1162,"Ġhere":1163,"ĠShe":1164,"ments":1165,"Ġdifferent":1166,"lt":1167,"set":1168,"Ġindivid":1169,"cious":1170,"Ġpursu":1171,"ĠK":1172,"Ġtoward":1173,"orn":1174,"Ġgu":1175,"Ġtimes":1176,"br":1177,"Ġreg":1178,"Ġtrans":1179,"Ġ[":1180,"Ġappreci":1181,"Ġforg":1182,"Ġask":1183,"Ġexperience":1184,"Ġdet":1185,"erm":1186,"Ġstrength":1187,"Ġplan":1188,"Ġmatter":1189,"Ġfost":1190,"Ġemp":1191,"ined":1192,"ality":1193,"ute":1194,"Ġvision":1195,"Ġmakes":1196,"aring":1197,"Ġref":1198,"Ġprov":1199,"Ġwonder":1200,"Dreams":1201,"ord":1202,"Ġinf":1203,"Ġspir":1204,"Ġdist":1205,"Ġstop":1206,"Ġeffort":1207,"Ġconnections":1208,"Ġaction":1209,"ative":1210,"Ġpain":1211,"Ġlim":1212,"Ġsec":1213,"av":1214,"hap":1215,"Ġwom":1216,"ĠSt":1217,"Ġplay":1218,"Ġexperiences":1219,"Ġ'":1220,"Ġface":1221,"ens":1222,"Ġsol":1223,"Ġbeauty":1224,"Ġmotivation":1225,"mer":1226,"Ġyet":1227,"Ġfollow":1228,"ime":1229,"ĠThis":1230,"ead":1231,"ates":1232,"Ġpre":1233,"Ġhand":1234,"vers":1235,"appiness":1236,"Ġprof":1237,"Ġco":1238,"âĢĶ":1239,"Ġread":1240,"Ġcourage":1241,"Ġenc":1242,"ues":1243,"Ġactions":1244,"Ġwish":1245,"ometimes":1246,"Ġprom":1247,"velop":1248,"Ġfulfillment":1249,"Ġsimple":1250,"Ġboth":1251,"ĠSo":1252,"ilities":1253,"Ġaccom":1254,"Ġess":1255,"Ġfree":1256,"ĠThat":1257,"Ġexpl":1258,"ect":1259,"Ġold":1260,"Ġstand":1261,"Ġrequ":1262,"ĠWhat":1263,"ĠYour":1264,"ng":1265,"ĠU":1266,"Ġwake":1267,"Ġfull":1268,"Ġbook":1269,"Ġemotional":1270,"Ġfar":1271,"Ġpath":1272,"leas":1273,"ication":1274,"Ġunderstanding":1275,"Ġpot":1276,"ĠEm":1277,"Ġkindness":1278,"Ġcle":1279,"Ġonce":1280,"Ġord":1281,"ĠThere":1282,"Ġremember":1283,"ffect":1284,"Ġ(":1285,"Ġmen":1286,"aging":1287,"Ġquest":1288,"gy":1289,"ike":1290,"Ġ.":1291,"Ġnurt":1292,"asy":1293,"usion":1294,"Ġbecom":1295,"Ġaccompl":1296,"ced":1297,"per":1298,"ru":1299,"hether":1300,"Ġfill":1301,"Ġdreamed":1302,"Ġallow":1303,"Ġinter":1304,"Ġpossible":1305,"Ġmoments":1306,"ling":1307,"Ġshall":1308,"Ġeng":1309,"Ġfaith":1310,"Ġimagination":1311,"Ġyears":1312,"Ġtwo":1313,"Ġda":1314,"Ġhead":1315,"Ġexpect":1316,"Ġtruth":1317,"Ġtas":1318,"ature":1319,"Ġfore":1320,"Ġfam":1321,"Ġtoday":1322,"Ġones":1323,"Ġseem":1324,"Ġbelie":1325,"Every":1326,"ty":1327,"Ġmyself":1328,"Ġtrust":1329,"tern":1330,"ĠDream":1331,"Ġpossib":1332,"piration":1333,"Ġspirit":1334,"ear":1335,"form":1336,"Ġsky":1337,"Ġpractic":1338,"ible":1339,"over":1340,"ĠY":1341,"rest":1342,"Ġrest":1343,"Ġtru":1344,"Ġactiv":1345,"Ġhealthy":1346,"iny":1347,"aught":1348,"Ġwanted":1349,"ĠCh":1350,"Ġcontin":1351,"Ġart":1352,"But":1353,"cl":1354,"Ġdone":1355,"Ġstay":1356,"Ġcomple":1357,"He":1358,"Ġinst":1359,"fulness":1360,"ock":1361,"Ġthinking":1362,"ched":1363,"ually":1364,"Ġbound":1365,"Ġcur":1366,"Ġcra":1367,"Ġmag":1368,"ogn":1369,"Dream":1370,"Ġsing":1371,"Ġcount":1372,"Ġhigh":1373,"Ġbeh":1374,"Ġdoing":1375,"Ġdef":1376,"Ġprodu":1377,"body":1378,"Ġreas":1379,"Ġener":1380,"Ġbreat":1381,"Ġment":1382,"Ġless":1383,"ances":1384,"Ġdreamer":1385,"ĠFor":1386,"fort":1387,"ience":1388,"Ġmain":1389,"Ġworth":1390,"Ġmindset":1391,"Ġactivities":1392,"Ġsign":1393,"Ġbrea":1394,"Ġcar":1395,"Ġcour":1396,"rib":1397,"ape":1398,"Ġtalk":1399,"Ġdie":1400,"ither":1401,"Ġgoal":1402,"Ġdevelop":1403,"Ġshow":1404,"Ġearth":1405,"With":1406,"den":1407,"pire":1408,"Ġdel":1409,"Ġwhole":1410,"Ġgreater":1411,"athy":1412,"uals":1413,"Ġmaking":1414,"izing":1415,"ized":1416,"Ġgreatest":1417,"ĠRe":1418,"Ġdeterm":1419,"Ġenv":1420,"Ġimpos":1421,"ier":1422,"ug":1423,"Ġvo":1424,"Ġaccept":1425,"Life":1426,"dom":1427,"ger":1428,"the":1429,"âĢ¦":1430,"ĠTo":1431,"Ġdifferen":1432,"Ġinvol":1433,"Ġdire":1434,"ange":1435,"atever":1436,"Ġlost":1437,"Ġalone":1438,"Ġexpress":1439,"Ġtruly":1440,"Ġmove":1441,"ished":1442,"Ġrun":1443,"ging":1444,"Ġfly":1445,"Ġupon":1446,"Ġinside":1447,"Ġchallenges":1448,"tic":1449,"yond":1450,"new":1451,"Ġbra":1452,"ged":1453,"que":1454,"Ġtakes":1455,"Ġbody":1456,"Ġinner":1457,"Ġeffect":1458,"Ġstars":1459,"Ġrather":1460,"Ġcompassion":1461,"Ġlies":1462,"Ġallows":1463,"Ġnightm":1464,"Ġlimit":1465,".âĢĿ":1466,"ho":1467,"ior":1468,"rie":1469,"Ġbal":1470,"irl":1471,"Ġresp":1472,"Ġpowerful":1473,"Ġaccomplish":1474,"ines":1475,"Ġrespect":1476,"com":1477,"ph":1478,"Ġwind":1479,"Ġsy":1480,"Ġcol":1481,"Ġstory":1482,"iveness":1483,"Ġmeans":1484,"Ġenergy":1485,"Ġmiss":1486,"Ġgot":1487,"ention":1488,"iverse":1489,"Ġindividuals":1490,"Ġtowards":1491,"Ġpotential":1492,"iet":1493,"Ġser":1494,"Ġgre":1495,"lect":1496,"Ġhaving":1497,"Ġdeath":1498,"Ġfew":1499,"Ġchoose":1500,"Ġsit":1501,"Ġhome":1502,"ross":1503,"Ġopportunities":1504,"My":1505,"ying":1506,"orrow":1507,"Ġbeyond":1508,"ĠDon":1509,"Ġmemories":1510,"--":1511,"vest":1512,"aries":1513,"Ġcourse":1514,"come":1515,"oub":1516,"Ġfin":1517,"ides":1518,"Ġsure":1519,"Ġability":1520,"ĠLife":1521,"Ġneeds":1522,"Ġwrite":1523,"For":1524,"ertain":1525,"iron":1526,"Ġwilling":1527,"Ġclose":1528,"Ġmaintain":1529,"where":1530,"xt":1531,"ĠĠĊ":1532,"Ġsw":1533,"ceive":1534,"ĠLet":1535,"Ġthough":1536,"pective":1537,"Ġemotions":1538,"Ġpursue":1539,"Ġbecomes":1540,"Ġdead":1541,"Ġleft":1542,"Ġdays":1543,"Ġbelong":1544,"Ġinspire":1545,"Never":1546,"ient":1547,"ook":1548,"rom":1549,"Ġmor":1550,"arning":1551,"Ġform":1552,"irc":1553,"pped":1554,"Ġcomfort":1555,"Ġprovide":1556,"Ġorder":1557,"Ġimpossible":1558,"joy":1559,"Ġcame":1560,"Ġpat":1561,"Ġhon":1562,"Ġexc":1563,"Ġext":1564,"Ġknew":1565,"ĠAs":1566,"Ġagainst":1567,"Ġconscious":1568,"Ġrecogn":1569,"ĠEmbra":1570,"Ġclear":1571,"Ġdaily":1572,"'re":1573,"May":1574,"She":1575,"cy":1576,"ps":1577,"Ġborn":1578,"Ġce":1579,"Ġmus":1580,"ident":1581,"ular":1582,"Ġeveryone":1583,"Ġblog":1584,"Ġfriend":1585,"Ġpractice":1586,"az":1587,"care":1588,"ism":1589,"Ġforget":1590,"Ġchar":1591,"Ġris":1592,"Ġspace":1593,"Ġprofound":1594,"Ġpleas":1595,"ĠEvery":1596,"Ġinspiration":1597,"__":1598,"Ġgirl":1599,"Ġshared":1600,"....":1601,"aces":1602,"Ġloved":1603,"Ġfinding":1604,"Ġmeaningful":1605,"fic":1606,"Ġwin":1607,"Ġche":1608,"Ġfant":1609,"ene":1610,"reas":1611,"Ġgift":1612,"Ġuse":1613,"Ġconst":1614,"acles":1615,"Ġfeeling":1616,"Ġsmile":1617,"Ġpoint":1618,"Ġawake":1619,"hys":1620,"Ġmoon":1621,"Ġmir":1622,"ork":1623,"Ġclos":1624,"Ġtrying":1625,"Ġproduct":1626,"Ġvoice":1627,"That":1628,"ered":1629,"Ġca":1630,"Ġfight":1631,"ision":1632,"Ġfelt":1633,"Ġprior":1634,"ledge":1635,"Ġexistence":1636,"Ġinterest":1637,"Ġessential":1638,"Ġfamily":1639,"Ġreason":1640,"Ġdifference":1641,"As":1642,"Ġtou":1643,"reed":1644,"Ġsil":1645,"Ġbro":1646,"Ġleave":1647,"Ġrealize":1648,"Ġfact":1649,"Ġsimply":1650,"Ġwisdom":1651,"Ġland":1652,"Ġev":1653,"Ġgiven":1654,"ready":1655,"Ġembrace":1656,"Ġpursuit":1657,"Ġtasks":1658,"Ġair":1659,"ony":1660,"Ġnature":1661,"Ġstress":1662,"ching":1663,"Ġimm":1664,"Ġhearts":1665,"Ġbehind":1666,",\"":1667,"All":1668,"ved":1669,"Ġmist":1670,"ĠDreams":1671,"ĠNo":1672,"Ġcontrib":1673,"Sometimes":1674,"Ġdem":1675,"Ġable":1676,"Ġalready":1677,"Ġfriendships":1678,"Ġempathy":1679,"ficult":1680,"ale":1681,"Ġcirc":1682,"lebr":1683,"ively":1684,"Ġdep":1685,"Ġembracing":1686,"Do":1687,"eep":1688,"und":1689,"Ġaut":1690,"Ġbad":1691,"Ġstate":1692,"aken":1693,"Ġperspective":1694,"Ġpray":1695,"Ġsometimes":1696,"ĠâĢĺ":1697,"Ġwrong":1698,"Ġtransform":1699,"Ġwoman":1700,"Ġexplore":1701,"Ġfilled":1702,"Ġpracticing":1703,"riends":1704,"line":1705,"Ġswe":1706,"Ġopt":1707,"Ġbir":1708,"Ġfo":1709,"isc":1710,"Ġkey":1711,"Ġdifficult":1712,"Ġobst":1713,"Ġlistening":1714,"clusion":1715,"ironment":1716,"side":1717,"Ġdare":1718,"Ġthr":1719,"Ġhands":1720,"Ġret":1721,"Ġaspect":1722,"Ġword":1723,"ately":1724,"istic":1725,"ĠHow":1726,"Ġbless":1727,"Ġsuccessful":1728,"Ġremain":1729,"Ġinvolves":1730,"St":1731,"uck":1732,"ince":1733,"Ġtom":1734,"Ġbed":1735,"ceed":1736,"Ġass":1737,"Ġenjoy":1738,"Ġimpact":1739,"Ġquality":1740,"Ġrelationship":1741,"Ġperfect":1742,"Ġlooking":1743,"Ġattention":1744,"Ġfailure":1745,"Ġgrace":1746,"meric":1747,"Ġboundaries":1748,"ny":1749,"to":1750,"up":1751,"uild":1752,"Ġsat":1753,"Ġfire":1754,"Ġsub":1755,"Ġshare":1756,"Ġproble":1757,"Ġunl":1758,"ĠHappiness":1759,"ĠLove":1760,"emember":1761,"Ġimpro":1762,"Ġdrive":1763,"Ġforever":1764,"Ġrespon":1765,"aw":1766,"cause":1767,"pr":1768,"Ġwhether":1769,"Ġcat":1770,"Ġtold":1771,"Ġph":1772,"Ġpu":1773,"rodu":1774,"Ġans":1775,"Ġdestiny":1776,"Ġgener":1777,"Ġmental":1778,"No":1779,"Ġphys":1780,"Ġneg":1781,"Ġabs":1782,"Ġbrings":1783,"Ġconnection":1784,"Ġsecret":1785,"Ġrequires":1786,"Ġnurturing":1787,"Ġenvironment":1788,"ĠV":1789,"Ġhig":1790,"ets":1791,"Ġhear":1792,"Ġdoor":1793,"Ġlose":1794,"oney":1795,"Ġlearning":1796,"ĠDo":1797,"Ġvalues":1798,"Ġbuilding":1799,"Ġcommunication":1800,"dream":1801,"ins":1802,"Ġlot":1803,"Ġground":1804,"cho":1805,"istent":1806,"Ġlevel":1807,"Ġmanage":1808,"ĠâĢĵ":1809,"Ġroom":1810,"Ġfully":1811,"Ġcultivating":1812,"Ġmagic":1813,",âĢĿ":1814,"ric":1815,"Ġtaking":1816,"Ġsac":1817,"Ġevent":1818,"Ġforward":1819,"Ġseen":1820,"Ġthemselves":1821,"Ġunc":1822,"Ġoverall":1823,"Ġregret":1824,"reedom":1825,"One":1826,"uine":1827,"Ġdra":1828,"Ġcoll":1829,"Ġdesires":1830,"Ġspend":1831,"Ġsteps":1832,"Ġwater":1833,"Ġwait":1834,"haps":1835,"Ġcomplete":1836,"Ġmorning":1837,"Ġes":1838,"Ġbene":1839,"ank":1840,"Ġmeet":1841,"hentic":1842,"ĠAmeric":1843,"Ġuni":1844,"Ġuniverse":1845,"Ġseek":1846,"Ġfeelings":1847,"Ġhelps":1848,"Ġwaiting":1849,"Ġchildren":1850,"Re":1851,"air":1852,"inary":1853,"Ġduring":1854,"Ġanyone":1855,"ĠNot":1856,"Ġcommit":1857,"oubt":1858,"ia":1859,"ject":1860,"ices":1861,"ills":1862,"ĠAll":1863,"Ġsaw":1864,"Ġaware":1865,"Not":1866,"Ġcor":1867,"Ġalong":1868,"ĠSe":1869,"Ġenh":1870,"Ġknows":1871,"Ġcontent":1872,"ability":1873,"hapter":1874,"aughter":1875,"?\"":1876,"Chapter":1877,"So":1878,"Ġbur":1879,"Ġtook":1880,"ery":1881,"raid":1882,"ifest":1883,"Ġnext":1884,"Ġappro":1885,"ĠĠĠĠ":1886,"Ġopportunity":1887,"Ġbreak":1888,"ares":1889,"gress":1890,"uccess":1891,"ont":1892,"Ġcertain":1893,"Ġmet":1894,"ilience":1895,"Ġnecess":1896,"Ġachie":1897,"Ġencourage":1898,"Ġbelief":1899,"Ġsignific":1900,"ib":1901,"Ġign":1902,"Ġbus":1903,"ital":1904,"Ġmed":1905,"Ġpay":1906,"Ġequ":1907,"Ġwhatever":1908,"idence":1909,"ĠThen":1910,"Ġalive":1911,"ĠTake":1912,"ĠEx":1913,"Ġbright":1914,"ĠOn":1915,"ters":1916,"Ġfue":1917,"ert":1918,"Ġharm":1919,"Ġgives":1920,"Ġpassions":1921,"Ġhopes":1922,"Ġimagine":1923,"Ġdiscover":1924,"Ġbreath":1925,"Ġbalance":1926,"Ġmusic":1927,"ining":1928,"ouse":1929,"Ġcap":1930,"ents":1931,"Ġste":1932,"ages":1933,"ĠTr":1934,"Ġasked":1935,"Ġsingle":1936,"Ġcharact":1937,"Ġansw":1938,"back":1939,"cceed":1940,"Ġ1":1941,"Ġlau":1942,"Ġhour":1943,"Ġeasy":1944,"Ġstories":1945,"ured":1946,"Ġidea":1947,"Ġgenuine":1948,"ternal":1949,"Ġtomorrow":1950,"aving":1951,"then":1952,"Ġwarm":1953,"ones":1954,"Ġmar":1955,"erc":1956,"Ġeither":1957,"ĠInt":1958,"ths":1959,"Ġprocess":1960,"Ġprogress":1961,"aster":1962,"Ġfulfilling":1963,"Ġafraid":1964,"Ġrain":1965,"lict":1966,"ratitude":1967,"ought":1968,"Ġwaking":1969,"Ġhor":1970,"iding":1971,"ilt":1972,"Ġjob":1973,"aste":1974,"Ġknown":1975,"Ġmanifest":1976,"ĠMy":1977,"Con":1978,"ken":1979,"ses":1980,"Ġsucceed":1981,"Ġfeet":1982,"elieve":1983,"Ġspeak":1984,"Ġcru":1985,"Ġtravel":1986,"Ġvalue":1987,"for":1988,"use":1989,"Ġill":1990,"Ġtal":1991,"Ġwings":1992,"Ġdoubt":1993,"Ġlack":1994,"Ġknowing":1995,"Ġresilience":1996,"Ġworking":1997,"ĠâĢĶ":1998,"Ġroad":1999,"Ġobstacles":2000,"Ġphysical":2001,"light":2002,"Ġav":2003,"Ġbit":2004,"ised":2005,"ope":2006,"Ġshad":2007,"Ġalign":2008,"uses":2009,"umst":2010,"Ġlived":2011,"Ġcontro":2012,"Ġdarkness":2013,"Ġengaging":2014,"Ġpossibilities":2015,"Wh":2016,"eople":2017,"sess":2018,"ater":2019,"Ġyoung":2020,"Ġmin":2021,"omp":2022,"Ġgone":2023,"Ġitself":2024,"irt":2025,"Ġsea":2026,"Ġmeant":2027,"Ġjud":2028,"Ġused":2029,"Ġseems":2030,"Ġdisapp":2031,"Ġdoesn":2032,"Ġforgiveness":2033,"Ġbooks":2034,"Ġdirection":2035,"Ġsitu":2036,"Ġreturn":2037,"Ġcrucial":2038,"ax":2039,"ek":2040,"most":2041,"ully":2042,"ote":2043,"ics":2044,"ush":2045,"Ġfriendship":2046,"Ġcommon":2047,"Ġbegins":2048,"Ġfoundation":2049,"Ġcultivate":2050,"Ġpriorit":2051,"Ġcontribute":2052,"Ġunique":2053,"me":2054,"Ġdiv":2055,"Ġbas":2056,"Ġfun":2057,"Ġfreedom":2058,"Ġmoney":2059,"isf":2060,"ane":2061,"Ġhalf":2062,"âĢľ":2063,"Ġshort":2064,"Ġflow":2065,"Ġcreating":2066,"Ġstrengthen":2067,"Ġcalled":2068,"Ġquestion":2069,"God":2070,"Ġside":2071,"Ġboy":2072,"Ġtop":2073,"Ġgiving":2074,"Ġwhite":2075,"ains":2076,"Ġamong":2077,"Ġstrate":2078,"Ġsafe":2079,"Ġideas":2080,"Ġhonest":2081,"Happiness":2082,"Let":2083,"On":2084,"Ġsim":2085,"Ġdance":2086,"isions":2087,"Ġinvest":2088,"urs":2089,"Ġabove":2090,"Ġfears":2091,"Ġacross":2092,"tered":2093,"Ġfostering":2094,"ĠUn":2095,"ugg":2096,"Ġproductivity":2097,"how":2098,"Ġtre":2099,"Ġtap":2100,"Ġfra":2101,"ense":2102,"Ġhab":2103,"Ġwhis":2104,"Ġeveryday":2105,"Ġplaces":2106,"Ġmindfulness":2107,"Ġresult":2108,"ĠOne":2109,"Ġsouls":2110,"Ġappreciate":2111,"Ġmaintaining":2112,"Ġbroken":2113,"Ġcircumst":2114,"Ġoptim":2115,"Ġcharacter":2116,"bl":2117,"ell":2118,"gr":2119,"of":2120,"Ġter":2121,"inite":2122,"Ġmon":2123,"Ġeas":2124,"Ġforce":2125,"antly":2126,"Ġkill":2127,"Ġchance":2128,"Ġoutside":2129,"Ġgetting":2130,"Ġbelonging":2131,"Ġsweet":2132,"uilding":2133,"Ġcontrol":2134,"Our":2135,"aven":2136,"ix":2137,"tle":2138,"Ġsound":2139,"ern":2140,"Ġyours":2141,"Ġlie":2142,"Ġrep":2143,"They":2144,"inding":2145,"ief":2146,"ĠNever":2147,"Ġconnect":2148,"Ġdeeper":2149,"Ġchoice":2150,"This":2151,"Ġinstead":2152,"Em":2153,"OU":2154,"oint":2155,"uous":2156,"Ġocc":2157,"atur":2158,"ited":2159,"Ġexerc":2160,"Ġsoon":2161,"ĠRemember":2162,"Ġwoke":2163,"anger":2164,"Ġmemory":2165,"Ġintell":2166,"Ġindividual":2167,"Ġseemed":2168,"Ġcarry":2169,"Ġtouch":2170,"Ġsatisf":2171,"Ġfuel":2172,"How":2173,"ishing":2174,"Ġlif":2175,"Ġmyst":2176,"Ġconc":2177,"Ġchase":2178,"ĠAt":2179,"ĠSometimes":2180,"Ġknowledge":2181,"Ġamb":2182,"Ġneeded":2183,"Ġadvent":2184,"Ġhimself":2185,"Ġvalu":2186,"Ġpursuing":2187,"Ġappreciation":2188,"Ġauthentic":2189,"Some":2190,"lu":2191,"rist":2192,"vice":2193,"Ġsad":2194,"any":2195,"Ġhouse":2196,"Ġdreamers":2197,"Ġheard":2198,"iew":2199,"Ġseed":2200,"Ġshape":2201,"ĠWh":2202,"Ġemail":2203,"ump":2204,"ĠDe":2205,"Ġwants":2206,"ĠEng":2207,"Ġadd":2208,"Ġvisions":2209,"onscious":2210,"Ġchallenge":2211,"Ġrequire":2212,"Ġnightmares":2213,"Ġcommitment":2214,"Ġachieving":2215,"ches":2216,"cape":2217,"Ġmid":2218,"ises":2219,"lling":2220,"lease":2221,"aly":2222,"ically":2223,"Ġasleep":2224,"Ġsuff":2225,"ĠThese":2226,"ĠWith":2227,"Ġseeking":2228,"Ġemb":2229,"Ġempt":2230,"ung":2231,"Ġways":2232,"Ġsetting":2233,"Ġfantasy":2234,"Ġhigher":2235,"Se":2236,"go":2237,"vor":2238,"Ġtem":2239,"Ġage":2240,"itle":2241,"Ġfle":2242,"Ġlar":2243,"Ġlay":2244,"real":2245,"alth":2246,"imate":2247,"ify":2248,"ateful":2249,"Ġkiss":2250,"Ġcoming":2251,"ĠCon":2252,"ĠRes":2253,"ĠNow":2254,"Ġlonger":2255,"Ġmatters":2256,"Ġwishes":2257,"Ġsym":2258,"Love":2259,"unt":2260,"Ġ&":2261,"Ġsour":2262,"Ġname":2263,"Ġrepl":2264,"Ġmere":2265,"Ġsocial":2266,"Ġminds":2267,"Ġspr":2268,"Ġfair":2269,"Ġstrange":2270,"Ġcreated":2271,"Ġcreative":2272,"roduction":2273,"Ġnegative":2274,"Ġcircumstances":2275,"fully":2276,"head":2277,"Ġwent":2278,"Ġwild":2279,"Ġwond":2280,"nding":2281,"ison":2282,"Ġpret":2283,"ety":2284,"Ġstar":2285,"fection":2286,"acle":2287,"Ġpossess":2288,"Ġblack":2289,"cknow":2290,"ivers":2291,"avig":2292,"Ġwomen":2293,"Ġnightmare":2294,"?âĢĿ":2295,"oid":2296,"por":2297,"Ġi":2298,"inc":2299,"Ġmother":2300,"ash":2301,"Ġsupp":2302,"ights":2303,"Ġflo":2304,"itting":2305,"ĠOur":2306,"Ġarms":2307,"Ġhappens":2308,"Ġpresence":2309,"pirations":2310,"sibility":2311,"Ġlearned":2312,"Ġincl":2313,"Ġfosters":2314,"ĠEmbracing":2315,"Ġcelebr":2316,"no":2317,"ror":2318,"ted":2319,"zy":2320,"Ġ2":2321,"Ġpar":2322,"Ġpict":2323,"lection":2324,"Ġreward":2325,"Ġsum":2326,"Ġleast":2327,"Ġclou":2328,"Ġcompl":2329,"Ġovercome":2330,"itten":2331,"ractice":2332,"Ġsays":2333,"Ġwriting":2334,"Ġdecisions":2335,"Ġconflict":2336,"Ġinflu":2337,"Ġapproach":2338,"Ġstrateg":2339,"Success":2340,"con":2341,"ew":2342,"rif":2343,"rite":2344,"Ġap":2345,"Ġwall":2346,"Ġbat":2347,"iter":2348,"Ġlaughter":2349,"Ġnum":2350,"Ġnavig":2351,"Ġgave":2352,"Ġredu":2353,"Ġdev":2354,"aced":2355,"amp":2356,"olog":2357,"Ġblood":2358,"Ġfeels":2359,"Ġactually":2360,"duc":2361,"Ġdidn":2362,"Ġhappened":2363,"Ġchoices":2364,"Ġsurround":2365,"Ġstronger":2366,"Ġwatch":2367,"Ġslow":2368,"Ġwonderful":2369,"Ġcontinue":2370,"'ll":2371,"cra":2372,"Ġwar":2373,"Ġfing":2374,"Ġmis":2375,"Ġlater":2376,"Ġund":2377,"Ġshift":2378,"Ġabund":2379,"osed":2380,"acy":2381,"Ġfell":2382,"Ġvi":2383,"Ġsoci":2384,"ipline":2385,"Ġrealized":2386,"Ġacts":2387,"Ġeye":2388,"Ġsleeping":2389,"Ġspec":2390,"Ġskin":2391,"Ġoffer":2392,"ĠBecause":2393,"Ġmoving":2394,"Ġcommunity":2395,"Ġprep":2396,"Ġnecessary":2397,"disc":2398,"iant":2399,"uit":2400,"Ġz":2401,"Ġsong":2402,"Ġded":2403,"Ġline":2404,"ution":2405,"ourish":2406,"asing":2407,"Ġreceive":2408,"Ġang":2409,"Ġgoes":2410,"Ġgold":2411,"Ġbecame":2412,"ĠGo":2413,"Ġstrugg":2414,"Ġtears":2415,"Ġconsistent":2416,"ruct":2417,"Ġcontentment":2418,"Ġlaugh":2419,"Ch":2420,"Tr":2421,"Ġ...":2422,"Ġahead":2423,"Ġbond":2424,"Ġcher":2425,"Ġmut":2426,"Ġmark":2427,"Ġmount":2428,"Ġpie":2429,"Ġhurt":2430,"Ġgod":2431,"ĠIs":2432,"Ġheaven":2433,"pping":2434,"Ġanx":2435,"Ġalmost":2436,"ization":2437,"Ġperhaps":2438,"appy":2439,"Ġforgot":2440,"Ġreflect":2441,"Ġcolor":2442,"Ġextra":2443,"Ġaspects":2444,"Ġblessings":2445,"chool":2446,"ming":2447,"rive":2448,"work":2449,"Ġisn":2450,"Ġult":2451,"ĠAl":2452,"Ġrich":2453,"Ġvital":2454,"Ġthank":2455,"Ġroot":2456,"Ġachieved":2457,"Ġbigger":2458,"Ġentire":2459,"obb":2460,"ĠEmbrace":2461,"bb":2462,"dden":2463,"Ġacknow":2464,"itivity":2465,"Ġmil":2466,"Ġaspirations":2467,"Ġnear":2468,"ained":2469,"ĠWhether":2470,"ament":2471,"Ġgrateful":2472,"Ġsomewhere":2473,"Ġspark":2474,"ĠFriends":2475,"ĠOr":2476,"Ġmaybe":2477,"Ġfoster":2478,"Ġpossibility":2479,"Ġeffective":2480,"'ve":2481,"aves":2482,"like":2483,"Ġsince":2484,"oring":2485,"arity":2486,"Ġgent":2487,"Ġweak":2488,"Ġreve":2489,"ield":2490,"Ġconv":2491,"estry":2492,"Ġfeed":2493,"Ġrout":2494,"ĠBuilding":2495,"igence":2496,"Ġunf":2497,"olute":2498,"ĠEven":2499,"erious":2500,"Ġdesp":2501,"ploy":2502,"ably":2503,"Ġpoet":2504,"Ġskills":2505,"Ġlasting":2506,"Ġdestination":2507,"Ġpromise":2508,"ĠYOU":2509,"Ġexpressing":2510,"Ġevents":2511,"Ġenhance":2512,"Conclusion":2513,"crast":2514,"sh":2515,"Ġcity":2516,"Ġcult":2517,"Ġcry":2518,"Ġcond":2519,"Ġhobb":2520,"Ġbeings":2521,"Ġstre":2522,"icate":2523,"idden":2524,"outh":2525,"Ġsudden":2526,"ĠSome":2527,"Ġview":2528,"Ġplans":2529,"Ġprice":2530,"Ġgets":2531,"Ġachievements":2532,"Ġcreates":2533,"angu":2534,"Ġbeginning":2535,"Ġbrain":2536,"iety":2537,"Ġproblem":2538,"Ġimprove":2539,"Ġanswer":2540,"Ġhours":2541,"Ġexercise":2542,"Ġsource":2543,"ners":2544,"ts":2545,"hest":2546,"Ġwon":2547,"Ġbar":2548,"Ġcold":2549,"Ġmine":2550,"Ġheld":2551,"Ġstud":2552,"ided":2553,"Ġconvers":2554,"ips":2555,"ĠHis":2556,"ĠGratitude":2557,"Ġpersist":2558,"Ġlooked":2559,"Ġendless":2560,"Ġcrit":2561,"Ġgrew":2562,"____":2563,"Ġfoot":2564,"Ġstrategies":2565,"Believe":2566,"Take":2567,"aim":2568,"hood":2569,"land":2570,"Ġopp":2571,"Ġburn":2572,"Ġmess":2573,"erve":2574,"Ġhist":2575,"odies":2576,"ĠAd":2577,"Ġrise":2578,"ĠSh":2579,"arent":2580,"asting":2581,"ousand":2582,"nderstand":2583,"ĠMind":2584,"Ġrole":2585,"rior":2586,"Ġwritten":2587,"Ġsurv":2588,"Ġprofess":2589,"Ġdirect":2590,"Ġrunning":2591,"Ġcapt":2592,"Ġnavigate":2593,"gin":2594,"iam":2595,"just":2596,"Ġident":2597,"Ġschool":2598,"Ġyouth":2599,"oration":2600,"anced":2601,"Ġnor":2602,"Ġhero":2603,"ids":2604,"ilos":2605,"Ġru":2606,"Ġvict":2607,"Ġsoft":2608,"ĠHer":2609,"Ġquit":2610,"Ġquite":2611,"Ġremind":2612,"Ġoffering":2613,"Ġpassionate":2614,"Ġchallenging":2615,"ĠJust":2616,"Ġessence":2617,"Ġallowing":2618,"Ġtask":2619,"ĠChrist":2620,"Ġtapestry":2621,"atural":2622,"Why":2623,"gment":2624,"ni":2625,"eness":2626,"omed":2627,"Ġdreamt":2628,"imb":2629,"eting":2630,"Ġstra":2631,"Ġjo":2632,"resh":2633,"Ġabilities":2634,"els":2635,"Ġquiet":2636,"ĠRel":2637,"Ġchanged":2638,"Ġsaying":2639,"Ġdeeply":2640,"Ġspecial":2641,"Ġquestions":2642,"Ġcountry":2643,"ĠForg":2644,"Ġmanagement":2645,"Ġempty":2646,".'":2647,"Friends":2648,"uff":2649,"Âł":2650,"Ġ,":2651,"Ġcent":2652,"Ġtool":2653,"Ġlangu":2654,"Ġthousand":2655,"Ġlips":2656,"ists":2657,"acity":2658,"Ġwhose":2659,"Ġdaydream":2660,"ĠMake":2661,"Ġsmil":2662,"overed":2663,"Ġsens":2664,"ried":2665,"Ġattain":2666,"Ġbonds":2667,"Ġimportance":2668,"Ġyear":2669,"Ġconfidence":2670,"Ġregular":2671,"Ġexpectations":2672,"Ġpractices":2673,"Ġdetermined":2674,"Ġpleasures":2675,"Ġunlock":2676,"ĠIntroduction":2677,"Ġtrees":2678,"ilosop":2679,"People":2680,"VE":2681,"ian":2682,"more":2683,"mag":2684,"rit":2685,"ries":2686,"Ġwand":2687,"Ġsight":2688,"Ġoce":2689,"Ġdim":2690,"Ġfast":2691,"Ġmouth":2692,"Ġgame":2693,"ott":2694,"alm":2695,"utes":2696,"anted":2697,"Ġsust":2698,"Ġconclusion":2699,"ester":2700,"Ġsharing":2701,"Ġenem":2702,"Ġrealm":2703,"Ġemploy":2704,"Ġgreatness":2705,"ĠMay":2706,"ocks":2707,"Ġperse":2708,"Ġchanges":2709,"Ġgrand":2710,"Ġintegr":2711,"Ġefforts":2712,"Ġengage":2713,"Ġrecognize":2714,"Ġmistakes":2715,"Ġproblems":2716,"Ġabsolute":2717,"ĠAmerica":2718,"Ġhabits":2719,"Ġabundance":2720,"Ġspecific":2721,"crastination":2722,"RE":2723,"bs":2724,"iction":2725,"know":2726,"nal":2727,"ze":2728,"Ġty":2729,"Ġtur":2730,"Ġmult":2731,"Ġpen":2732,"Ġed":2733,"str":2734,"stead":2735,"ider":2736,"Ġsear":2737,"Ġloving":2738,"ĠWrite":2739,"ĠEn":2740,"ĠPos":2741,"Ġrelax":2742,"Ġteac":2743,"ending":2744,"Ġstarted":2745,"Ġleading":2746,"Ġnurture":2747,"Ġcontinuous":2748,"Ġencouragement":2749,"Ġdivine":2750,"Ġclouds":2751,"sy":2752,"you":2753,"Ġtaken":2754,"Ġcross":2755,"Ġfood":2756,"ened":2757,"Ġthy":2758,"Ġsto":2759,"ives":2760,"indness":2761,"Ġexcept":2762,"Ġdepe":2763,"Ġleg":2764,"ĠTime":2765,"ĠTitle":2766,"Ġrealities":2767,"Ġunless":2768,"ĠLord":2769,"ĠLike":2770,"Ġspread":2771,"Ġclimb":2772,"Ġadv":2773,"Ġbuilt":2774,"Ġhelping":2775,"Ġsetback":2776,"Ġdecide":2777,"Ġdecision":2778,"Ġturned":2779,"Ġfalling":2780,"Ġdistra":2781,"Ġpromot":2782,"Ġrisk":2783,"Ġbenef":2784,"Nothing":2785,"Ġembark":2786,"Ġapart":2787,"ducation":2788,"Ġmutual":2789,"Ġforgotten":2790,"esterday":2791,"An":2792,"de":2793,"man":2794,"Ġest":2795,"Ġdro":2796,"itions":2797,"Ġmill":2798,"Ġlate":2799,"ancing":2800,"utions":2801,"irm":2802,"Ġexternal":2803,"aged":2804,"Ġsho":2805,"osity":2806,"Ġvar":2807,"Ġupl":2808,"Ġunw":2809,"empt":2810,"Ġpositivity":2811,"ĠMe":2812,"Ġflower":2813,"Ġago":2814,"Ġattitude":2815,"Ġkeeps":2816,"Being":2817,"Ġwalking":2818,"Ġbelieving":2819,"Ġdetermination":2820,"Ġcloser":2821,"Ġtransformative":2822,"ĠAmerican":2823,"Ġawareness":2824,"Ġsituation":2825,"Ġadventure":2826,"Ġfairy":2827,"Ġpicture":2828,"Ġhistory":2829,"At":2830,"Live":2831,"elebr":2832,"gest":2833,"lan":2834,"une":2835,"Ġtest":2836,"Ġtree":2837,"reate":2838,"Ġwide":2839,"Ġdust":2840,"Ġcause":2841,"Ġmad":2842,"Ġmaster":2843,"Ġpost":2844,"Ġthree":2845,"Ġhidden":2846,"Ġhair":2847,"Ġstret":2848,"that":2849,"ĠAn":2850,"Ġprot":2851,"Ġresol":2852,"Ġteach":2853,"Ġquick":2854,"Ġflame":2855,"Ġfulfilled":2856,"Those":2857,"Ġholding":2858,"Ġempower":2859,"Ġreading":2860,"Ġbecoming":2861,"Ġdevelopment":2862,"Ġinspired":2863,"Ġsacred":2864,"Ġcompletely":2865,"Ġdisappoint":2866,"Ġintelligence":2867,"rifice":2868,",'":2869,"Who":2870,"apt":2871,"ev":2872,"ees":2873,"overy":2874,"par":2875,"sing":2876,"Ġve":2877,"Ġtaste":2878,"Ġsent":2879,"ites":2880,"itation":2881,"Ġcast":2882,"Ġpol":2883,"omm":2884,"Ġele":2885,"Ġbear":2886,"Ġgain":2887,"stem":2888,"Ġonto":2889,"Ġhell":2890,"icated":2891,"Ġmeas":2892,"Ġexact":2893,"Ġchasing":2894,"Ġtried":2895,"usi":2896,"used":2897,"Ġseeing":2898,"ĠEach":2899,"ĠCultiv":2900,"erial":2901,"cks":2902,"Ġhumanity":2903,".\"\"":2904,"Ġenth":2905,"Ġdistance":2906,"Ġstanding":2907,"Ġcrazy":2908,"Ġlands":2909,"Ġresponsibility":2910,"Ġphilosop":2911,"Ġmerely":2912,"incip":2913,"known":2914,"Al":2915,"IN":2916,"Keep":2917,"action":2918,"ma":2919,"oke":2920,"Ġaff":2921,"Ġfad":2922,"ening":2923,"Ġhar":2924,"oms":2925,"Ġur":2926,"Ġstood":2927,"Ġfruit":2928,"esty":2929,"Ġri":2930,"Ġvan":2931,"Ġworlds":2932,"Ġprincip":2933,"aper":2934,"ĠInstead":2935,"Ġimagined":2936,"Ġopin":2937,"Ġdeepest":2938,"Ġpoor":2939,"Ġhealing":2940,"Ġstarts":2941,"Ġfailures":2942,"Ġdestro":2943,"Ġdesired":2944,"Ġappreciating":2945,"Ġsystem":2946,"Ġgreen":2947,"Ġconsciousness":2948,"Ġclosed":2949,"Ġinterests":2950,"Ġdemon":2951,"Ġcatch":2952,"Ġsignificant":2953,"Ġbusiness":2954,"ĠOnly":2955,"Ġhoriz":2956,"Ġavoid":2957,"Ġconflicts":2958,"Ġsociety":2959,"Ġanxiety":2960,"Ġhobbies":2961,"Ġlanguage":2962,"Ġenthusi":2963,"!!":2964,"Go":2965,"yn":2966,"Ġer":2967,"hel":2968,"attered":2969,"Ġdanger":2970,"Ġpress":2971,"lled":2972,"reak":2973,"Ġune":2974,"Ġdefe":2975,"Ġshine":2976,"Ġvul":2977,"ushed":2978,"rought":2979,"Ġprob":2980,"Ġprop":2981,"ationships":2982,"ired":2983,"Ġpriv":2984,"Ġfavor":2985,"Ġblue":2986,"Ġclarity":2987,"Ġletting":2988,"Ġappear":2989,"ĠThrough":2990,"Ġcreativity":2991,"Ġrad":2992,"Ġsupportive":2993,"Ġsecond":2994,"Ġacceptance":2995,"ĠHowever":2996,"Ġsacrifice":2997,"Ġprioritizing":2998,"Ġresults":2999,"Ġsuddenly":3000,"Ġconversations":3001,"Hope":3002,"Of":3003,"bers":3004,"dle":3005,"fter":3006,"ple":3007,"pers":3008,"Ġdwe":3009,"Ġbes":3010,"Ġbare":3011,"Ġyesterday":3012,"Ġcut":3013,"Ġfur":3014,"Ġfate":3015,"Ġmod":3016,"Ġlone":3017,"Ġlab":3018,"Ġnet":3019,"Ġgard":3020,"Ġmyth":3021,"Ġshap":3022,"Ġtri":3023,"Ġleap":3024,"Ġpros":3025,"Ġherself":3026,"Ġworks":3027,"Ġtech":3028,"Ġpartic":3029,"ÂĢÂĶ":3030,"piring":3031,"Ġexists":3032,"Ġmotivated":3033,"Ġsurpr":3034,"Ġtransce":3035,"Ġprovides":3036,"Ġinfinite":3037,"Ġplays":3038,"Ġplaying":3039,"Ġdefine":3040,"coming":3041,"Ġservice":3042,"Ġescape":3043,"Ġbeliefs":3044,"Ġflowers":3045,"Ġstrengthens":3046,"riorit":3047,"Ġsurvive":3048,"ĠRelationships":3049,"Ġemployees":3050,"Ġsetbacks":3051,"Ġdistractions":3052,"Any":3053,"na":3054,"uc":3055,"upport":3056,"Ġten":3057,"Ġtreas":3058,"inate":3059,"Ġdied":3060,"Ġble":3061,"Ġfather":3062,"Ġpred":3063,"Ġnatural":3064,"Ġbeat":3065,"stood":3066,"urd":3067,"urround":3068,"Ġsees":3069,"Ġexce":3070,"ored":3071,"Ġloss":3072,"Ġintent":3073,"ĠWho":3074,"Ġrom":3075,"Ġvirt":3076,"ames":3077,"Ġleaves":3078,"Ġunknown":3079,"ĠHim":3080,"ĠDare":3081,"Ġamaz":3082,"ĠPer":3083,"Ġresour":3084,"ĠFinding":3085,"Ġkept":3086,"Ġgrows":3087,"cked":3088,"Ġfund":3089,"Ġglass":3090,"Ġwatching":3091,"Ġguide":3092,"Ġpleasure":3093,"Ġfighting":3094,"Ġsecrets":3095,"Ġbeneath":3096,"Ġharmon":3097,"Ġshadows":3098,"Ġvaluable":3099,"ĠRespect":3100,"Ġgentle":3101,"omeday":3102,"Dare":3103,"Is":3104,"Just":3105,"but":3106,"ex":3107,"onds":3108,"with":3109,"ys":3110,"Ġtight":3111,"rew":3112,"Ġwit":3113,"ingly":3114,"Ġden":3115,"Ġdig":3116,"Ġbodies":3117,"Ġfal":3118,"esh":3119,"ishes":3120,"Ġpure":3121,"Ġpsy":3122,"aning":3123,"otiv":3124,"ays":3125,"Ġforth":3126,"illed":3127,"idge":3128,"Ġemer":3129,"Ġsomehow":3130,"Ġcompan":3131,"Ġnights":3132,"Ġadm":3133,"Ġachievement":3134,"Ġrace":3135,"Ġfocusing":3136,"Ġleads":3137,"Ġstrengths":3138,"ordinary":3139,"Ġsolid":3140,"Ġready":3141,"Ġordinary":3142,"Ġcurrent":3143,"Dreaming":3144,"Ġwindow":3145,"Ġserve":3146,"Ġcorner":3147,"Whatever":3148,"Ġjudgment":3149,"Ġbased":3150,"Ġeasily":3151,"Ġlifet":3152,"Ġinfluence":3153,"Ġultimate":3154,"ĠMindfulness":3155,"Ġprofessional":3156,"Ġocean":3157,"Ġvulner":3158,"Ġfundament":3159,"De":3160,"ES":3161,"Int":3162,"Where":3163,"aid":3164,"Ġtreat":3165,"Ġaim":3166,"Ġwood":3167,"Ġsort":3168,"Ġsize":3169,"Ġtor":3170,"ency":3171,"Ġeternal":3172,"ently":3173,"ili":3174,"Ġmel":3175,"oday":3176,"antic":3177,"Ġchur":3178,"osing":3179,"Ġintric":3180,"ĠLe":3181,"ĠMar":3182,"ĠPriorit":3183,"Ġteam":3184,"ression":3185,"Ġactive":3186,"Ġexperien":3187,"Ġimagin":3188,"Ġattract":3189,"Ġattempt":3190,"Ġfocused":3191,"Ġobs":3192,"Ġdetail":3193,"versity":3194,"Ġreasons":3195,"Ġsilence":3196,"Ġdepths":3197,"aware":3198,"Ġseeds":3199,"Ġcelebrate":3200,"Ġvibr":3201,"Ġroutine":3202,"Ġrelaxation":3203,"Ġvarious":3204,"Ġlifetime":3205,"Ex":3206,"ffe":3207,"life":3208,"look":3209,"ned":3210,"time":3211,"uct":3212,"Ġvers":3213,"Ġtill":3214,"Ġtiny":3215,"Ġwra":3216,"Ġsor":3217,"Ġdying":3218,"Ġfix":3219,"Ġfresh":3220,"Ġparent":3221,"Ġeat":3222,"owed":3223,"Ġreached":3224,"Ġconqu":3225,"Ġintim":3226,"Ġimage":3227,"aked":3228,"nect":3229,"Ġunreal":3230,"cient":3231,"Ġhowever":3232,"Ġactual":3233,"Ġfulfil":3234,"Ġbelieved":3235,"ĠBeing":3236,"Ġglory":3237,"Ġacqu":3238,"Ġtelling":3239,"ĠKeep":3240,"Ġforgive":3241,"Ġreflection":3242,"comp":3243,"Ġfinally":3244,"Ġwillingness":3245,"Ġpatience":3246,"Ġpatient":3247,"Ġmiracle":3248,"Ġdemand":3249,"Ġdraw":3250,"Ġharmony":3251,"Ġcapable":3252,"Ġshadow":3253,"Ġsimpl":3254,"Ġreduce":3255,"Ġfingers":3256,"Ġextraordinary":3257,"Ġexactly":3258,"Ġresources":3259,"Now":3260,"mb":3261,"ration":3262,"ule":3263,"ĠÃ¢":3264,"Ġwaste":3265,"Ġsitting":3266,"Ġserious":3267,"Ġcalm":3268,"ising":3269,"Ġlow":3270,"Ġpaper":3271,"Ġho":3272,"Ġhat":3273,"Ġhate":3274,"lear":3275,"Ġut":3276,"iment":3277,"Ġwhom":3278,"enty":3279,"Ġwealth":3280,"asm":3281,"Ġred":3282,"ilar":3283,"Ġworry":3284,"ants":3285,"Ġshows":3286,"ĠAct":3287,"oss":3288,"roud":3289,"Ġunderstood":3290,"Ġperform":3291,"Ġjoyful":3292,"abl":3293,"Ġmaterial":3294,"Ġcrow":3295,"Ġcalling":3296,"Ġholds":3297,"Ġideal":3298,"Ġregard":3299,"Ġforest":3300,"Ġbrave":3301,"Ġexcuses":3302,"Ġmirror":3303,"Ġperspectives":3304,"Ġtalents":3305,"Ġbitter":3306,"Ġjudge":3307,"Ġdedication":3308,"Ġmountain":3309,"ĠMaybe":3310,"Ġdestroy":3311,"Ġfurther":3312,"Ġfalse":3313,"otivation":3314,"Ġfundamental":3315,"Le":3316,"Sh":3317,"ah":3318,"eed":3319,"gan":3320,"iest":3321,"iosity":3322,"my":3323,"spiration":3324,"ued":3325,"zz":3326,"Ġsle":3327,"Ġsand":3328,"Ġbold":3329,"Ġcost":3330,"Ġfield":3331,"orpor":3332,"arth":3333,"Ġgaz":3334,"ots":3335,"Ġforms":3336,"Ġrev":3337,"Ġrepe":3338,"ird":3339,"hers":3340,"Ġsepar":3341,"ĠWhy":3342,"ĠBl":3343,"usive":3344,"Ġproper":3345,"ume":3346,"cially":3347,"Ġmanaging":3348,"inking":3349,"ĠLive":3350,"ocking":3351,"Ġstrive":3352,"Ġqual":3353,"Ġdesign":3354,"Ġflourish":3355,"Ġappe":3356,"Ġremem":3357,"Ġlooks":3358,"Ġ--":3359,"Ġende":3360,"Ġemotion":3361,"Ġopens":3362,"soci":3363,"Ġawaken":3364,"Ġglow":3365,"ĠJes":3366,"ĠJoy":3367,"Ġenter":3368,"Ġdistant":3369,"Ġlimits":3370,"Ġencount":3371,"Ġbreathing":3372,"Ġeffectively":3373,"Ġlimitations":3374,"phony":3375,"Ġmission":3376,"ceived":3377,"Ġbird":3378,"Ġtopic":3379,"Ġoptimism":3380,"Ġlarger":3381,"Ġnumber":3382,"Ġzone":3383,"Ġunfold":3384,"ĠForgiveness":3385,"00":3386,"From":3387,"fl":3388,"face":3389,"gic":3390,"iate":3391,"pathy":3392,"ray":3393,"wor":3394,"Ġought":3395,"Ġtaught":3396,"ouble":3397,"Ġson":3398,"Ġsal":3399,"Ġod":3400,"Ġfig":3401,"Ġnar":3402,"Ġetern":3403,"Ġfort":3404,"Ġstuff":3405,"Ġseas":3406,"Ġjump":3407,"ĠSet":3408,"Ġprocrastination":3409,"Ġoverw":3410,"Ġflesh":3411,"ĠOf":3412,"ĠOther":3413,"Ġpercept":3414,"Ġperfection":3415,"Ġjoys":3416,"Ġadversity":3417,"Ġpractical":3418,"Ġbegan":3419,"Ġconfident":3420,"Ġspiritual":3421,"Ġcomplex":3422,"Ġswim":3423,"Maybe":3424,"Ġfantas":3425,"Ġevil":3426,"Ġregrets":3427,"Ġwarmth":3428,"Ġtalent":3429,"Ġprioritize":3430,"Embra":3431,"Ġsatisfaction":3432,"Ġambition":3433,"Ġsummer":3434,"Ġwalls":3435,"Ġslowly":3436,"Ġstruggle":3437,"Ġpieces":3438,"Ġreveal":3439,"Friendship":3440,"Ġbenefits":3441,"Ġprotect":3442,"Ġopinions":3443,"Ġgarden":3444,"!\"":3445,"Practice":3446,"Remember":3447,"aj":3448,"cle":3449,"do":3450,"eace":3451,"oom":3452,"rise":3453,"vation":3454,"wh":3455,"Ã©":3456,"Ġir":3457,"inct":3458,"oud":3459,"atic":3460,"Ġbrought":3461,"Ġluck":3462,"orious":3463,"lls":3464,"Ġearn":3465,"urpose":3466,"ifting":3467,"Ġexh":3468,"Ġdear":3469,"estones":3470,"Ġbutter":3471,"Ġuns":3472,"asted":3473,"Ġeverybody":3474,"Ġnobody":3475,"Ġexpand":3476,"Ġanyway":3477,"Ġanybody":3478,"ĠPeople":3479,"ĠPractice":3480,"Ġactively":3481,"bered":3482,"rible":3483,"Ġwriter":3484,"Ġkeeping":3485,"Ġboost":3486,"Ġtrack":3487,"ĠĠĠ":3488,"Ġaccount":3489,"Ġincreas":3490,"Ġfollowing":3491,"Ġlessons":3492,"Without":3493,"Ġflying":3494,"comes":3495,"Ġcolour":3496,"Ġrecognizing":3497,"Ġclearly":3498,"ĠEverything":3499,"Ġprayer":3500,"Ġbirds":3501,"Ġthrive":3502,"Ġhighest":3503,"ĠTrue":3504,"Ġanswers":3505,"Ġfuels":3506,"Ġmiddle":3507,"Ġripp":3508,"Ġdemonstr":3509,"Ġbeside":3510,"compassion":3511,"Ġendeav":3512,"\".":3513,"Even":3514,"Gratitude":3515,"Imag":3516,"Make":3517,"ON":3518,"Res":3519,"conscious":3520,"ians":3521,"long":3522,"mp":3523,"mos":3524,"inity":3525,"oun":3526,"Ġsomeday":3527,"nded":3528,"atch":3529,"Ġfit":3530,"Ġfine":3531,"Ġled":3532,"Ġpick":3533,"Ġpush":3534,"Ġecho":3535,"lev":3536,"owers":3537,"Ġstorm":3538,"icity":3539,"Ġrej":3540,"Then":3541,"iling":3542,"ager":3543,"Ġlosing":3544,"istance":3545,"pered":3546,"pecially":3547,"Ġens":3548,"Ġhappier":3549,"ques":3550,"ĠGet":3551,"ĠEarth":3552,"Ġanymore":3553,"ĠCan":3554,"Ġspent":3555,"Ġblind":3556,"Ġbridge":3557,"ĠFrom":3558,"Ġdesert":3559,"Ġdeserve":3560,"Ġsmell":3561,"Ġflight":3562,"Ġgrowing":3563,"Ġbox":3564,"Ġharder":3565,"Ġsmaller":3566,"recious":3567,"Ġpeaceful":3568,"Ġcareer":3569,"ĠKindness":3570,"Ġguess":3571,"Ġprevent":3572,"Ġcool":3573,"Ġencour":3574,"rupt":3575,"Ġdawn":3576,"Ġrising":3577,"Ġcheer":3578,"Ġconstant":3579,"Ġsilent":3580,"Ġbirth":3581,"Ġenjoying":3582,"Ġeventually":3583,"Ġunconscious":3584,"Ġspending":3585,"ĠĠĠĠĠĠĠĠ":3586,"ĠTrust":3587,"Ġillusion":3588,"ĠEngage":3589,"Ġlarge":3590,"Ġacknowled":3591,"Ġculture":3592,"Ġsustain":3593,"Ġabsolutely":3594,"Ġturning":3595,"Ġedge":3596,"Ġenthusiasm":3597,"Ġtechni":3598,"Ġqualities":3599,"Ġoverwhel":3600,"By":3601,"Find":3602,"Time":3603,"elf":3604,"kind":3605,"ls":3606,"Ġ3":3607,"Ġtang":3608,"Ġtired":3609,"Ġwise":3610,"Ġcore":3611,"Ġfour":3612,"Ġmass":3613,"Ġproud":3614,"Ġprecious":3615,"Ġthrow":3616,"rease":3617,"Ġnone":3618,"alty":3619,"Ġrein":3620,"rap":3621,"ravel":3622,"Ġdog":3623,"Ġkn":3624,"Ġshut":3625,"ĠTaking":3626,"ĠHave":3627,"ards":3628,"Ġoutcomes":3629,"cience":3630,"Ġpersistent":3631,"ocate":3632,"Ġclot":3633,"Ġclock":3634,"erior":3635,"Ġarrive":3636,"Ġscar":3637,"Ġglad":3638,"Ġbringing":3639,"Ġsurface":3640,"Ġinvis":3641,"Ġreaching":3642,"Ġguid":3643,"Ġoneself":3644,"Everything":3645,"Ġdefinite":3646,"Ġdifferences":3647,"Ġcolors":3648,"Ġpattern":3649,"Ġimmense":3650,"Ġfool":3651,"?\"\"":3652,"Ġbusy":3653,"Ġminutes":3654,"Ġmystery":3655,"Ġfleeting":3656,"Ġsymphony":3657,"Ġwonders":3658,"discipline":3659,"Ġgolden":3660,"Ġpoetry":3661,"Ġpersistence":3662,"Ġoppos":3663,"Ġpersever":3664,"Ġstopped":3665,"Ġmillion":3666,"Ġshoes":3667,"Ġuplift":3668,"ĠCultivating":3669,"Ġprobably":3670,"Ġpsych":3671,"Ġchurch":3672,"Each":3673,"Yes":3674,"cap":3675,"ler":3676,"pen":3677,"Ġ5":3678,"Ġthee":3679,"onal":3680,"onight":3681,"Ġtown":3682,"Ġpal":3683,"Ġplease":3684,"Ġends":3685,"Ġego":3686,"Ġliber":3687,"eth":3688,"icious":3689,"âĢĵ":3690,"ified":3691,"Ġfront":3692,"Ġorgan":3693,"Ġsuper":3694,"Ġaband":3695,"Ġintention":3696,"ĠBelieve":3697,"rounds":3698,"Ġleaving":3699,"umb":3700,"izes":3701,"Ġbliss":3702,"ĠPurpose":3703,"Ġresent":3704,"Ġfinds":3705,"ressed":3706,"Ġsenses":3707,"Ġpoem":3708,"Ġscream":3709,"Ġsched":3710,"Ġvalid":3711,"Ġearly":3712,"Ġinform":3713,"Ġsolitude":3714,"Ġsolutions":3715,"ĠYet":3716,"Ġcuriosity":3717,"Ġbalanced":3718,"Ġcomfortable":3719,"Ġgirls":3720,"Ġconstantly":3721,"Ġconstruct":3722,"ĠSelf":3723,"Ġenhances":3724,"Ġcapacity":3725,"Ġeasier":3726,"ĠWhile":3727,"ĠEngaging":3728,"Ġsupposed":3729,"Ġbattle":3730,"Ġmilestones":3731,"Ġfeedback":3732,"Ġharmonious":3733,"Ġcompanions":3734,"Ġeternity":3735,"Ġinvisible":3736,"Ġperseverance":3737,"Ġabandon":3738,"AN":3739,"Many":3740,"Work":3741,"af":3742,"by":3743,"courage":3744,"dreams":3745,"lves":3746,"rs":3747,"Ġver":3748,"render":3749,"Ġsn":3750,"ator":3751,"vere":3752,"Ġmer":3753,"Ġloud":3754,"Ġnation":3755,"Ġeducation":3756,"Ġhaunt":3757,"Ġlift":3758,"Ġweight":3759,"asc":3760,"Ġstup":3761,"icing":3762,"ulous":3763,"Ġkid":3764,"Ġcha":3765,"Ġshore":3766,"amed":3767,"Ġsoil":3768,"term":3769,"Ġenric":3770,"ushing":3771,"Ġproject":3772,"ĠLook":3773,"Ġprison":3774,"ĠPro":3775,"Ġwherever":3776,"Ġsave":3777,"Ġsail":3778,"ressing":3779,"Ġcouldn":3780,"Ġpassed":3781,"ĠHere":3782,"ĠWell":3783,"Ġaffect":3784,"uality":3785,"Ġhumans":3786,"Ġscen":3787,"Ġpartners":3788,"Ġchoosing":3789,"Because":3790,"ints":3791,"Ġleader":3792,"Ġleaders":3793,"Ġobject":3794,"Ġturns":3795,"Ġincrease":3796,"Ġputting":3797,"Ġplanet":3798,"ĠStart":3799,"ffective":3800,"Ġmagn":3801,"Ġcolle":3802,"airs":3803,"Ġmeditation":3804,"ĠExp":3805,"Ġinvesting":3806,"Ġwhispered":3807,"Ġconcern":3808,"True":3809,"Ġstreet":3810,"ĠPositive":3811,"Ġpromoting":3812,"elebrate":3813,"Ġhorizon":3814,"ynam":3815,"Ġexcell":3816,"awareness":3817,"Ġparents":3818,"Ġremembered":3819,"ĠJesus":3820,"Ġtechniques":3821,"Ġguidance":3822,"AM":3823,"Have":3824,"Know":3825,"che":3826,"cent":3827,"ccept":3828,"gu":3829,"ik":3830,"ipped":3831,"kay":3832,"mind":3833,"phere":3834,"sed":3835,"ull":3836,"ĠQ":3837,"Ġauth":3838,"ref":3839,"Ġwife":3840,"Ġsnow":3841,"ndent":3842,"ats":3843,"Ġbott":3844,"itable":3845,"Ġcaught":3846,"Ġlad":3847,"Ġthin":3848,"Ġhang":3849,"Ġnourish":3850,"imately":3851,"ether":3852,"Ġheav":3853,"Ġheights":3854,"Ġstick":3855,"Ġstuck":3856,"âĢ¬":3857,"urity":3858,"raph":3859,"Ġworst":3860,"Ġshattered":3861,"Ġtran":3862,"ĠWhere":3863,"ntil":3864,"ĠSpe":3865,"Ġvast":3866,"ĠHappy":3867,"hered":3868,"oken":3869,"Ġsomebody":3870,"Ġimper":3871,"udd":3872,"pected":3873,"Ġsavor":3874,"ĠFocus":3875,"Ġinspiring":3876,"place":3877,"Ġpassing":3878,"Ġrock":3879,"Ġremark":3880,"Ġbuy":3881,"Well":3882,"ĠThose":3883,"Ġscared":3884,"Ġoffers":3885,"Ġlights":3886,"Ġglorious":3887,"Ġyearn":3888,"Ġmov":3889,"Ġdiscovered":3890,"Ġincred":3891,"Ġwalked":3892,"Ġspirits":3893,"Ġpromote":3894,"Ġaccomplished":3895,"ĠYes":3896,"Ġmagical":3897,"Ġbreathe":3898,"Ġworthy":3899,"Ġbreaks":3900,"Ġtalking":3901,"Ġcompassionate":3902,"Ġhonor":3903,"Ġdifficulties":3904,"Ġsignificance":3905,"Ġignite":3906,"Ġsituations":3907,"Ġrequired":3908,"Ġsuffer":3909,"Self":3910,"Ġtempor":3911,"Ġreplace":3912,"Ġspring":3913,"iversity":3914,"Ġdevil":3915,"Ġacknowledge":3916,"Ġdespair":3917,"Ġstreets":3918,"Ġvictory":3919,"Ġstraight":3920,"Ġintegrity":3921,"Ġestabl":3922,"Ġromantic":3923,"Ġintricate":3924,"Ġexperienced":3925,"Ġconquer":3926,"Ġcrowd":3927,"Ġslept":3928,"Embrace":3929,".âĢľ":3930,"Pro":3931,"Purs":3932,"Un":3933,"bo":3934,"cogn":3935,"ey":3936,"gg":3937,"li":3938,"rin":3939,"wo":3940,"Ġice":3941,"Ġwhe":3942,"onic":3943,"Ġcand":3944,"Ġlines":3945,"Ġpra":3946,"Ġnut":3947,"arge":3948,"arily":3949,"eds":3950,"let":3951,"asp":3952,"icient":3953,"Ġrelease":3954,"Ġdoors":3955,"though":3956,"Ġneither":3957,"Ġorig":3958,"Ġdeal":3959,"Ġship":3960,"Ġtroub":3961,"aint":3962,"ĠWill":3963,"Ġric":3964,"Ġrul":3965,"Ġriver":3966,"ĠSurround":3967,"Ġvivid":3968,"Ġenab":3969,"Ġlikely":3970,"umin":3971,"Ġoutlook":3972,"ĠListen":3973,"Ġanywhere":3974,"ĠCreate":3975,"ĠComm":3976,"Ġblocks":3977,"Ġstranger":3978,"Ġthroughout":3979,"Ġdesc":3980,"ĠNew":3981,"play":3982,"itted":3983,"ogue":3984,"Ġsounds":3985,"abilities":3986,"Ġimages":3987,"Ġfuck":3988,"Ġsettle":3989,"Ġconsider":3990,"Ġmotion":3991,"Ġglimp":3992,"urturing":3993,"Ġunto":3994,"Ġdrift":3995,"Ġsurrender":3996,"Ġdiscipline":3997,"Ġplanning":3998,"Ġpainting":3999,"Ġartist":4000,"Ġbehav":4001,"ĠReg":4002,"Ġdetermine":4003,"Ġlimited":4004,"Ġaccomplishments":4005,"Ġsurely":4006,"Ġevol":4007,"Ġsubconscious":4008,"While":4009,"ompass":4010,"Once":4011,"ology":4012,"Trust":4013,"Ġcherished":4014,"Ġpiece":4015,"Ġjoin":4016,"REAM":4017,"Ġunex":4018,"ffee":4019,"Ġripple":4020,"Ġreinfor":4021,"Ġstupid":4022,"'d":4023,").":4024,"AT":4025,"Great":4026,"Most":4027,"een":4028,"fly":4029,"gn":4030,"pre":4031,"power":4032,"rip":4033,"val":4034,"vious":4035,"who":4036,"Ġ4":4037,"Ġtong":4038,"hetic":4039,"atter":4040,"Ġdynam":4041,"Ġbread":4042,"itch":4043,"Ġfre":4044,"Ġfan":4045,"Ġfro":4046,"Ġlink":4047,"Ġpill":4048,"erved":4049,"Ġinn":4050,"Ġeager":4051,"Ġgap":4052,"uthentic":4053,"Ġreb":4054,"ulate":4055,"Ġasking":4056,"Ġworse":4057,"Ġfright":4058,"anting":4059,"Ġloves":4060,"Ġkids":4061,"ĠAr":4062,"resent":4063,"ĠTheir":4064,"ĠSm":4065,"ĠSimp":4066,"Ġatmos":4067,"Ġrealise":4068,"Ġeverywhere":4069,"ĠMan":4070,"ĠMotivation":4071,"Ġbloss":4072,"Ġgrown":4073,"ogether":4074,"Ġbiggest":4075,"ĠdonÃ¢":4076,"Ġparts":4077,"Ġopened":4078,"Ġrare":4079,"Ġdecided":4080,"Ġjournal":4081,"Ġwatched":4082,"Ġobl":4083,"Ġfalls":4084,"Ġsolace":4085,"Ġcoffee":4086,"Ġcourageous":4087,"ĠUnderstand":4088,"Ġpossibly":4089,"Ġcurious":4090,".âĢĿâĢľ":4091,"Ġaccomplishment":4092,"Ġsilver":4093,"undred":4094,"iscover":4095,"Ġsubject":4096,"Ġresponsible":4097,"Ġpull":4098,"Ġabsence":4099,"Ġuncertain":4100,"Ġcollab":4101,"Ġespecially":4102,"ĠExpl":4103,"Ġbrighter":4104,"Only":4105,"Ġsimilar":4106,"Ġfrag":4107,"Ġhabit":4108,"Ġwhisper":4109,"Ġoccur":4110,"Ġwondered":4111,"Ġrewards":4112,"Ġsumm":4113,"discovery":4114,"Ġcherish":4115,"Ġcritic":4116,"Ġenemy":4117,"Ġenemies":4118,"Ġfavorite":4119,"Ġfantasies":4120,"Ġacknowledging":4121,"minded":4122,"?'":4123,"His":4124,"IT":4125,"Like":4126,"OR":4127,"Set":4128,"Today":4129,"bor":4130,"fer":4131,"give":4132,"pires":4133,"rich":4134,"rect":4135,"Ġwine":4136,"Ġsin":4137,"Ġspect":4138,"Ġokay":4139,"Ġdancing":4140,"Ġyes":4141,"Ġcase":4142,"Ġmach":4143,"Ġhung":4144,"Ġhundred":4145,"Ġinh":4146,"Ġnon":4147,"Ġnour":4148,"Ġnorm":4149,"Ġnaked":4150,"arp":4151,"omy":4152,"Ġears":4153,"Ġgh":4154,"Ġgate":4155,"imited":4156,"Ġnote":4157,"These":4158,"Ġassoci":4159,"Ġneigh":4160,"Ġconcept":4161,"Ġshining":4162,"eps":4163,"ister":4164,"ĠWor":4165,"Ġcomb":4166,"ĠSuccess":4167,"Ġusually":4168,"Ġvain":4169,"ipl":4170,"ĠTH":4171,"Ġprove":4172,"eless":4173,"aunt":4174,"Ġunivers":4175,"Ġoutcome":4176,"Ġwanting":4177,"ĠGive":4178,"Ġblank":4179,"Ġovercoming":4180,"oved":4181,"wards":4182,"seless":4183,"Ġadjust":4184,"ualize":4185,"pirit":4186,"Ġdrink":4187,"sibilities":4188,"Ġsunset":4189,"Ġcommunities":4190,"ĠKnow":4191,"Ġrefuse":4192,"Ġpaint":4193,"ĠStr":4194,"ension":4195,"Ġencompass":4196,"Ġexploration":4197,"Ġpaths":4198,"Ġpotent":4199,"Ġremembering":4200,"Ġshowing":4201,"Ġdetermines":4202,"Ġmoved":4203,"Ġmissing":4204,"romise":4205,"ularly":4206,"Ġgifts":4207,"Ġmiracles":4208,"Ġmistake":4209,"Ġunlimited":4210,"Ġdrag":4211,"Ġcollect":4212,"Ġmedi":4213,"Ġoptimistic":4214,"Ġterrible":4215,"Ġconnected":4216,"Ġconcent":4217,"Ġauthenticity":4218,"going":4219,"althy":4220,"ĠConne":4221,"Ġpretty":4222,"ashion":4223,"Ġinclud":4224,"Ġroots":4225,"Ġentirely":4226,"Ġweakness":4227,"Ġimprovement":4228,"Ġlegs":4229,"Ġspreading":4230,"Ġdisappointment":4231,"Ġmeasure":4232,"Ġurg":4233,"Ġprivile":4234,"Ġlonely":4235,"Ġtreasure":4236,"ĠPerhaps":4237,"Ġdigital":4238,"Ġimaginations":4239,"Ġperception":4240,"Ġdefinitely":4241,"Ġschedule":4242,"Ġcompanionship":4243,"reflection":4244,"Ġbottom":4245,"Ġremarkable":4246,"Oh":4247,"aver":4248,"actions":4249,"bow":4250,"bol":4251,"ec":4252,"erest":4253,"oon":4254,"pes":4255,"ring":4256,"uge":4257,"Ġtall":4258,"ounds":4259,"ators":4260,"Ġdies":4261,"Ġdaring":4262,"Ġbind":4263,"Ġbab":4264,"Ġbree":4265,"Ġfive":4266,"Ġfirm":4267,"Ġfashion":4268,"Ġpack":4269,"Ġthreat":4270,"Ġhot":4271,"Ġhol":4272,"Ġhug":4273,"Ġinvent":4274,"otional":4275,"lex":4276,"Ġhast":4277,"aying":4278,"verage":4279,"Ġwee":4280,"Ġwear":4281,"lying":4282,"Ġstat":4283,"Ġstore":4284,"illy":4285,"ury":4286,"Ġmeal":4287,"Ġloc":4288,"Ġking":4289,"Ġchains":4290,"ĠAm":4291,"ĠSupport":4292,"Ġusing":4293,"aming":4294,"Ġench":4295,"Ġups":4296,"Ġunh":4297,"umble":4298,"unk":4299,"ĠDREAM":4300,"Ġamount":4301,"omething":4302,"Ġmanner":4303,"ĠCl":4304,"ĠCreat":4305,"Ġbloom":4306,"ĠPower":4307,"Ġreson":4308,"Ġrelig":4309,"Ġbrill":4310,"Ġclass":4311,"Ġclaim":4312,"itement":4313,"Ġstruct":4314,"Ġtender":4315,"eriod":4316,"ĠFind":4317,"Ġcompet":4318,"Ġsuccesses":4319,"Ġperm":4320,"Ġchanging":4321,"Ġadop":4322,"lessly":4323,"Ġarm":4324,"ĠThings":4325,"Ġtwenty":4326,"Ġbuilds":4327,"Ġincorpor":4328,"obody":4329,"Ġprec":4330,"Ġcraft":4331,"Ġproduce":4332,"Ġfinal":4333,"Ġconsciously":4334,"Ġrisks":4335,"Ġinterested":4336,"Ġobstacle":4337,"Ġremains":4338,"aws":4339,"Ġpubl":4340,"Ġpuzz":4341,"Ġburied":4342,"Ġburden":4343,"Ġsignificantly":4344,"Ġavail":4345,"Ġminute":4346,"ompassion":4347,"Ġdisappe":4348,"Ġmonths":4349,"Ġoccas":4350,"Ġtempt":4351,"Ġsymbol":4352,"Ġbatt":4353,"Ġangel":4354,"Ġmountains":4355,"Ġgods":4356,"Ġthankful":4357,"Ġdespite":4358,"________":4359,"Ġsearch":4360,"Ġteacher":4361,"Ġelements":4362,"Always":4363,"Ġdwell":4364,"Ġnetwork":4365,"ĠPrioritize":4366,"Ġvibrant":4367,"Ġintimacy":4368,"nected":4369,"Ġgaze":4370,"Ġbutterfly":4371,"Ġresentment":4372,"Ġunexpected":4373,"Ġatmosphere":4374,"Ġuniversal":4375,"Are":4376,"ER":4377,"IVE":4378,"OW":4379,"Per":4380,"bel":4381,"filled":4382,"iance":4383,"ials":4384,"med":4385,"night":4386,"oh":4387,"pret":4388,"ron":4389,"ran":4390,"rows":4391,"she":4392,"wise":4393,"Ġ6":4394,"Ġ7":4395,"Ġque":4396,"Ġtonight":4397,"Ġareas":4398,"Ġdam":4399,"Ġfac":4400,"Ġfaster":4401,"Ġmort":4402,"Ġmaj":4403,"Ġtot":4404,"Ġtoler":4405,"Ġpan":4406,"Ġpop":4407,"Ġhide":4408,"Ġgest":4409,"Ġiss":4410,"Ġongoing":4411,"ashed":4412,"Ġstone":4413,"Ġstage":4414,"Ġrever":4415,"Ġhaven":4416,"Ġaside":4417,"Ġsex":4418,"Ġselves":4419,"Ġworries":4420,"Ġmyths":4421,"Ġloy":4422,"Ġlover":4423,"Ġlogic":4424,"Ġje":4425,"ĠAny":4426,"Ġtrouble":4427,"Ġcompe":4428,"Ġrid":4429,"Ġround":4430,"astic":4431,"Ġpride":4432,"Ġresides":4433,"Ġthinks":4434,"Ġcompany":4435,"Ġlonging":4436,"Ġcreation":4437,"Ġchances":4438,"ĠInspiration":4439,"Ġadapt":4440,"Ġparties":4441,"Ġpartner":4442,"Ġpositively":4443,"Ġsets":4444,"Ġawa":4445,"Ġfailed":4446,"Ġpassionately":4447,"Ġrecon":4448,"Ġcalls":4449,"Ġsunsh":4450,"ification":4451,"ĠKing":4452,"Ġsolution":4453,"Ġpromises":4454,"Ġolder":4455,"Everyone":4456,"Ġhighly":4457,"ĠRef":4458,"Ġenvision":4459,"Ġinvolve":4460,"Ġexcitement":4461,"Ġextending":4462,"Ġchest":4463,"Ġcauses":4464,"Ġimmed":4465,"Ġimmers":4466,"Ġdepth":4467,"Ġprayers":4468,"Ġgenerations":4469,"ĠNothing":4470,"Ġmanifestation":4471,"Ġindividuality":4472,"Ġcarrying":4473,"Ġlifesty":4474,"alyst":4475,"Ġsuffering":4476,"Ġangels":4477,"ĠAlways":4478,"Ġrichness":4479,"Ġdaydreaming":4480,"Ġsearching":4481,"Ġstretch":4482,"Ġharvest":4483,"Ġprinciples":4484,"Ġdangerous":4485,"Ġsurprise":4486,"Ġwitness":4487,"Ġdetails":4488,"Ġsimplest":4489,"Ġchaos":4490,"ript":4491,"ĠSimple":4492,"Ġcollaboration":4493,"Ġbreeze":4494,"Ġavailable":4495,"Ġsunshine":4496,"En":4497,"Follow":4498,"ION":4499,"bed":4500,"eel":4501,"flict":4502,"iber":4503,"iability":4504,"ked":4505,"pet":4506,"rate":4507,"ycle":4508,"Ġing":4509,"Ġid":4510,"inal":4511,"inally":4512,"Ġwasting":4513,"Ġsorrow":4514,"Ġdut":4515,"Ġdiam":4516,"Ġdiversity":4517,"Ġball":4518,"Ġcop":4519,"Ġcup":4520,"Ġmas":4521,"Ġlying":4522,"Ġport":4523,"Ġgrou":4524,"leg":4525,"Ġweek":4526,"Ġstream":4527,"Ġnotice":4528,"icks":4529,"ural":4530,"ifying":4531,"ague":4532,"Ġdeg":4533,"ĠAre":4534,"ĠAfter":4535,"osen":4536,"orts":4537,"Ġvol":4538,"ĠHaving":4539,"uman":4540,"umph":4541,"Ġtherefore":4542,"ĠCont":4543,"Ġspl":4544,"Ġspot":4545,"Ġbelow":4546,"Ġfault":4547,"ĠPurs":4548,"Ġworked":4549,"Ġdesper":4550,"Ġactivity":4551,"Ġflood":4552,"wered":4553,"Ġrose":4554,"Ġadult":4555,"Ġendure":4556,"Ġdowns":4557,"ÂĢÂĺ":4558,"Ġconsum":4559,"Ġtrain":4560,"Before":4561,"Ġhardest":4562,"Ġstarting":4563,"Ġgrave":4564,"Ġwaters":4565,"Ġtells":4566,"Ġmembers":4567,"Ġwished":4568,"itionally":4569,"Ġstands":4570,"ruction":4571,"Ġinteractions":4572,"Ġexpected":4573,"Ġbelieves":4574,"Ġbreaking":4575,"Ġwinds":4576,"Ġmissed":4577,"Ġfinished":4578,"Ġblessed":4579,"Stop":4580,"Ġdriven":4581,"ĠSeek":4582,"Ġignor":4583,"aneous":4584,"Ġhonesty":4585,"Ġintellect":4586,"ĠWithout":4587,"Ġpossessions":4588,"Ġfloor":4589,"Ġfloating":4590,"ample":4591,"Ġconvin":4592,"ĠAdd":4593,"Ġcaptiv":4594,"Ġtools":4595,"Ġwander":4596,"Ġtype":4597,"Ġdrop":4598,"Ġfaded":4599,"Ġtriumph":4600,"Ġamazing":4601,"iliar":4602,"Ġwrapped":4603,"âĢ¬âĢ¬":4604,"Ġcandle":4605,"Ġlifestyle":4606,".âĢĻ":4607,"Ad":4608,"Good":4609,"Her":4610,"Happy":4611,"LL":4612,"Passion":4613,"der":4614,"ection":4615,"from":4616,"fidence":4617,"io":4618,"liness":4619,"pie":4620,"uition":4621,"vable":4622,"when":4623,"Ġaud":4624,"Ġdaughter":4625,"Ġcamp":4626,"Ġfaces":4627,"Ġfaced":4628,"Ġling":4629,"Ġlist":4630,"Ġpage":4631,"Ġpages":4632,"Ġperiod":4633,"eries":4634,"Ġthick":4635,"lla":4636,"Ġinev":4637,"Ġnice":4638,"Ġelect":4639,"Ġgiant":4640,"sto":4641,"ĠInd":4642,"Ġhall":4643,"verty":4644,"Ġheight":4645,"Ġwel":4646,"Ġstead":4647,"urable":4648,"ulse":4649,"ros":4650,"roll":4651,"ils":4652,"Ġchose":4653,"Ġsharp":4654,"ĠApp":4655,"ĠWas":4656,"ĠWork":4657,"Ġrhy":4658,"ĠSim":4659,"Ġsold":4660,"arer":4661,"tering":4662,"using":4663,"ĠTogether":4664,"nel":4665,"queness":4666,"Ġrealistic":4667,"Ġunp":4668,"ĠHo":4669,"unication":4670,"ĠDes":4671,"Ġgrief":4672,"Ġgreatly":4673,"Ġposition":4674,"ĠMost":4675,"Ġjustice":4676,"ĠClear":4677,"Ġblur":4678,"ĠPar":4679,"ĠPlan":4680,"ĠâĢ¦":4681,"ĠFear":4682,"Ġdiss":4683,"olding":4684,"Ġhoping":4685,"Ġadvice":4686,"Ġnews":4687,"apped":4688,"ĠThink":4689,"Ġpoverty":4690,"Ġcreatures":4691,"Ġindeed":4692,"Ġelusive":4693,"icked":4694,"Ġexisted":4695,"Ġtwist":4696,"Ġdrown":4697,"Ġdestined":4698,"Ġcarefully":4699,"ĠStop":4700,"ĠEmpathy":4701,"Ġinternal":4702,"Ġdeveloping":4703,"Ġdelicate":4704,"Ġdelicious":4705,"ĠReality":4706,"ĠRecogn":4707,"they":4708,"Ġexpression":4709,"Ġexcuse":4710,"Ġinteresting":4711,"Ġtouched":4712,"Ġbroad":4713,"Ġkeys":4714,"Ġcatalyst":4715,"Ġgeneration":4716,"Ġgenerate":4717,"Ġmeth":4718,"Ġmedia":4719,"Ġdoubts":4720,"ĠUniverse":4721,"Ġframe":4722,"Ġmonst":4723,"Ġambitions":4724,"Ġvalued":4725,"Ġflew":4726,"Ġpretend":4727,"Ġsurrounded":4728,"Ġprepared":4729,"Ġconsistently":4730,"Ġultimately":4731,"Ġmessage":4732,"Ġidentify":4733,"Ġsmiles":4734,"Ġquickly":4735,"Ġempowering":4736,"Ġpolit":4737,"Ġdefeat":4738,"ĠLearn":4739,"ĠMariam":4740,"Ġencounter":4741,"Ġnarrow":4742,"while":4743,"Imagination":4744,"Respect":4745,"Ġpatterns":4746,"Ġinformation":4747,"Ġtemporary":4748,"Ġenables":4749,"Ġoblig":4750,"Ġbattles":4751,"Cl":4752,"Creat":4753,"Fear":4754,"Listen":4755,"Lead":4756,"aith":4757,"aust":4758,"dent":4759,"ech":4760,"ghed":4761,"ky":4762,"lines":4763,"right":4764,"ta":4765,"tes":4766,"Ġ9":4767,"Ġ:":4768,"ĠÂł":4769,"Ġtar":4770,"Ġtable":4771,"Ġtough":4772,"Ġwound":4773,"Ġwars":4774,"Ġdress":4775,"Ġdread":4776,"Ġbag":4777,"Ġbones":4778,"Ġcou":4779,"Ġcycle":4780,"Ġmur":4781,"isdom":4782,"Ġla":4783,"Ġliter":4784,"Ġpun":4785,"erie":4786,"erving":4787,"Ġthus":4788,"Ġthirst":4789,"Ġhy":4790,"Ġhit":4791,"Ġgather":4792,"ĠImp":4793,"lend":4794,"lement":4795,"Ġlibr":4796,"vert":4797,"Ġonline":4798,"ased":4799,"iced":4800,"illing":4801,"Ġrese":4802,"iring":4803,"raction":4804,"uls":4805,"ulation":4806,"rop":4807,"Ġanim":4808,"Ġanger":4809,"Ġsever":4810,"thm":4811,"Ġsug":4812,"Ġexample":4813,"Ġshr":4814,"Ġshines":4815,"ĠAccept":4816,".....":4817,"istence":4818,"osition":4819,"ams":4820,"Ġenrich":4821,"ĠItÃ¢":4822,"Ġgranted":4823,"ĠGreat":4824,"ĠGood":4825,"ĠGrow":4826,"herent":4827,"ĠLiving":4828,"ĠEffective":4829,"ĠMoment":4830,"Ġblow":4831,"ĠPl":4832,"ĠPeace":4833,"Ġbran":4834,"Ġstriving":4835,"Ġtend":4836,"Ġinspires":4837,"Ġappl":4838,"riage":4839,"ĠHealthy":4840,"Ġattent":4841,"Ġhumor":4842,"Ġponder":4843,"Ġhappening":4844,"Ġvisit":4845,"Ġsett":4846,"Think":4847,"Ġchildhood":4848,"Ġideals":4849,"ailure":4850,"Ġcommunicate":4851,"Ġproviding":4852,"Ġclean":4853,"Ġinterpret":4854,"earning":4855,"ĠCho":4856,"ĠChange":4857,"Ġinstru":4858,"Within":4859,"Ġbelongs":4860,"Ġexciting":4861,"Ġrecognition":4862,"........":4863,"Ġpriorities":4864,"Ġcontribut":4865,"Ġresponsibilities":4866,"roduct":4867,"Ġgeneral":4868,"Ġabsurd":4869,"Ġwaited":4870,"Reality":4871,"Ġcertainly":4872,"ĠOnce":4873,"Ġlaughed":4874,"Ġmarvel":4875,"Ġalignment":4876,"Ġreturns":4877,"Ġfunction":4878,"Ġboys":4879,"Ġsatisfied":4880,"Ġmysterious":4881,"Ġadventures":4882,"ĠDevelop":4883,"Ġparad":4884,"confidence":4885,"Ġfinger":4886,"Ġmisu":4887,"ĠGoals":4888,"ĠYOUR":4889,"Ġbarri":4890,"Ġstudy":4891,"Ġcritics":4892,"Ġquietly":4893,"Ġpersevere":4894,"Ġdepend":4895,"Ġdepends":4896,"Ġunwaver":4897,"ĠMeaning":4898,"Ġmasterpie":4899,"Ġdwelling":4900,"Ġprosper":4901,"Ġintentional":4902,"Ġvulnerable":4903,"Ġdemands":4904,"Ġlucky":4905,"Ġencourages":4906,"Ġclothes":4907,"Ġscenes":4908,"Ġheavy":4909,"Ġestablish":4910,"Ġtongue":4911,"given":4912,"Ġmachine":4913,"Ġnormal":4914,"Ġghost":4915,"Ġduty":4916,"Ġunwavering":4917,"AR":4918,"Courage":4919,"Cultiv":4920,"Did":4921,"Get":4922,"IS":4923,"Living":4924,"Plan":4925,"Spe":4926,"Support":4927,"Yet":4928,"either":4929,"ius":4930,"ictions":4931,"jo":4932,"love":4933,"riting":4934,"sis":4935,"vol":4936,"what":4937,"yrin":4938,"Ġiron":4939,"Ġaverage":4940,"heart":4941,"Ġwasted":4942,"Ġsake":4943,"Ġsqu":4944,"itional":4945,"itious":4946,"Ġcos":4947,"Ġcam":4948,"Ġfiction":4949,"Ġlu":4950,"orms":4951,"Ġhur":4952,"Ġhind":4953,"reads":4954,"reaking":4955,"Ġinno":4956,"aration":4957,"arry":4958,"stal":4959,"sequ":4960,"etic":4961,"Ġheat":4962,"Ġweird":4963,"ases":4964,"Ġstu":4965,"Ġstir":4966,"Ġstare":4967,"icating":4968,"Ġreleas":4969,"Ġrenew":4970,"urance":4971,"charge":4972,"rad":4973,"iffe":4974,"Ġdoll":4975,"Ġantic":4976,"Ġancient":4977,"Ġlifelong":4978,"Ġchosen":4979,"Ġtrig":4980,"ept":4981,"Ġring":4982,"ĠShow":4983,"Ġsole":4984,"Ġplanted":4985,"ĠGra":4986,"udes":4987,"Ġfabr":4988,"ocr":4989,"rence":4990,"nother":4991,"Ġroof":4992,"Ġperpet":4993,"Ġwrote":4994,"Ġnowhere":4995,"Ġrights":4996,"Ġmatch":4997,"Ġskies":4998,"Ġcris":4999}